node {
  name: "global_step/Initializer/zeros"
  op: "Const"
  attr {
    key: "_class"
    value {
      list {
        s: "loc:@global_step"
      }
    }
  }
  attr {
    key: "_output_shapes"
    value {
      list {
        shape {
        }
      }
    }
  }
  attr {
    key: "dtype"
    value {
      type: DT_INT64
    }
  }
  attr {
    key: "value"
    value {
      tensor {
        dtype: DT_INT64
        tensor_shape {
        }
        int64_val: 0
      }
    }
  }
}
node {
  name: "global_step"
  op: "VariableV2"
  attr {
    key: "_class"
    value {
      list {
        s: "loc:@global_step"
      }
    }
  }
  attr {
    key: "_output_shapes"
    value {
      list {
        shape {
        }
      }
    }
  }
  attr {
    key: "container"
    value {
      s: ""
    }
  }
  attr {
    key: "dtype"
    value {
      type: DT_INT64
    }
  }
  attr {
    key: "shape"
    value {
      shape {
      }
    }
  }
  attr {
    key: "shared_name"
    value {
      s: ""
    }
  }
}
node {
  name: "global_step/Assign"
  op: "Assign"
  input: "global_step"
  input: "global_step/Initializer/zeros"
  attr {
    key: "T"
    value {
      type: DT_INT64
    }
  }
  attr {
    key: "_class"
    value {
      list {
        s: "loc:@global_step"
      }
    }
  }
  attr {
    key: "_output_shapes"
    value {
      list {
        shape {
        }
      }
    }
  }
  attr {
    key: "use_locking"
    value {
      b: true
    }
  }
  attr {
    key: "validate_shape"
    value {
      b: true
    }
  }
}
node {
  name: "global_step/read"
  op: "Identity"
  input: "global_step"
  attr {
    key: "T"
    value {
      type: DT_INT64
    }
  }
  attr {
    key: "_class"
    value {
      list {
        s: "loc:@global_step"
      }
    }
  }
  attr {
    key: "_output_shapes"
    value {
      list {
        shape {
        }
      }
    }
  }
}
node {
  name: "global_step/IsVariableInitialized"
  op: "IsVariableInitialized"
  input: "global_step"
  attr {
    key: "_class"
    value {
      list {
        s: "loc:@global_step"
      }
    }
  }
  attr {
    key: "_output_shapes"
    value {
      list {
        shape {
        }
      }
    }
  }
  attr {
    key: "dtype"
    value {
      type: DT_INT64
    }
  }
}
node {
  name: "global_step/cond/Switch"
  op: "Switch"
  input: "global_step/IsVariableInitialized"
  input: "global_step/IsVariableInitialized"
  attr {
    key: "T"
    value {
      type: DT_BOOL
    }
  }
  attr {
    key: "_output_shapes"
    value {
      list {
        shape {
        }
        shape {
        }
      }
    }
  }
}
node {
  name: "global_step/cond/switch_t"
  op: "Identity"
  input: "global_step/cond/Switch:1"
  attr {
    key: "T"
    value {
      type: DT_BOOL
    }
  }
  attr {
    key: "_output_shapes"
    value {
      list {
        shape {
        }
      }
    }
  }
}
node {
  name: "global_step/cond/switch_f"
  op: "Identity"
  input: "global_step/cond/Switch"
  attr {
    key: "T"
    value {
      type: DT_BOOL
    }
  }
  attr {
    key: "_output_shapes"
    value {
      list {
        shape {
        }
      }
    }
  }
}
node {
  name: "global_step/cond/pred_id"
  op: "Identity"
  input: "global_step/IsVariableInitialized"
  attr {
    key: "T"
    value {
      type: DT_BOOL
    }
  }
  attr {
    key: "_output_shapes"
    value {
      list {
        shape {
        }
      }
    }
  }
}
node {
  name: "global_step/cond/read"
  op: "Identity"
  input: "global_step/cond/read/Switch:1"
  attr {
    key: "T"
    value {
      type: DT_INT64
    }
  }
  attr {
    key: "_output_shapes"
    value {
      list {
        shape {
        }
      }
    }
  }
}
node {
  name: "global_step/cond/read/Switch"
  op: "RefSwitch"
  input: "global_step"
  input: "global_step/cond/pred_id"
  attr {
    key: "T"
    value {
      type: DT_INT64
    }
  }
  attr {
    key: "_class"
    value {
      list {
        s: "loc:@global_step"
      }
    }
  }
  attr {
    key: "_output_shapes"
    value {
      list {
        shape {
        }
        shape {
        }
      }
    }
  }
}
node {
  name: "global_step/cond/Switch_1"
  op: "Switch"
  input: "global_step/Initializer/zeros"
  input: "global_step/cond/pred_id"
  attr {
    key: "T"
    value {
      type: DT_INT64
    }
  }
  attr {
    key: "_class"
    value {
      list {
        s: "loc:@global_step"
      }
    }
  }
  attr {
    key: "_output_shapes"
    value {
      list {
        shape {
        }
        shape {
        }
      }
    }
  }
}
node {
  name: "global_step/cond/Merge"
  op: "Merge"
  input: "global_step/cond/Switch_1"
  input: "global_step/cond/read"
  attr {
    key: "N"
    value {
      i: 2
    }
  }
  attr {
    key: "T"
    value {
      type: DT_INT64
    }
  }
  attr {
    key: "_output_shapes"
    value {
      list {
        shape {
        }
        shape {
        }
      }
    }
  }
}
node {
  name: "global_step/add/y"
  op: "Const"
  attr {
    key: "_output_shapes"
    value {
      list {
        shape {
        }
      }
    }
  }
  attr {
    key: "dtype"
    value {
      type: DT_INT64
    }
  }
  attr {
    key: "value"
    value {
      tensor {
        dtype: DT_INT64
        tensor_shape {
        }
        int64_val: 0
      }
    }
  }
}
node {
  name: "global_step/add"
  op: "Add"
  input: "global_step/cond/Merge"
  input: "global_step/add/y"
  attr {
    key: "T"
    value {
      type: DT_INT64
    }
  }
  attr {
    key: "_output_shapes"
    value {
      list {
        shape {
        }
      }
    }
  }
}
node {
  name: "tensors/component_0"
  op: "Const"
  device: "/device:CPU:0"
  attr {
    key: "_output_shapes"
    value {
      list {
        shape {
          dim {
            size: 301
          }
        }
      }
    }
  }
  attr {
    key: "dtype"
    value {
      type: DT_INT64
    }
  }
  attr {
    key: "value"
    value {
      tensor {
        dtype: DT_INT64
        tensor_shape {
          dim {
            size: 301
          }
        }
        tensor_content: "_\000\000\000\000\000\000\000_\000\000\000\000\000\000\000d\000\000\000\000\000\000\000&\000\000\000\000\000\000\000>\000\000\000\000\000\000\000L\000\000\000\000\000\000\000<\000\000\000\000\000\000\000V\000\000\000\000\000\000\0005\000\000\000\000\000\000\000V\000\000\000\000\000\000\000;\000\000\000\000\000\000\000-\000\000\000\000\000\000\000P\000\000\000\000\000\000\000P\000\000\000\000\000\000\000\\\000\000\000\000\000\000\000H\000\000\000\000\000\000\0003\000\000\000\000\000\000\000A\000\000\000\000\000\000\000X\000\000\000\000\000\000\000V\000\000\000\000\000\000\000I\000\000\000\000\000\000\000E\000\000\000\000\000\000\000G\000\000\000\000\000\000\000<\000\000\000\000\000\000\000`\000\000\000\000\000\000\000d\000\000\000\000\000\000\000^\000\000\000\000\000\000\000\\\000\000\000\000\000\000\000_\000\000\000\000\000\000\000A\000\000\000\000\000\000\0004\000\000\000\000\000\000\000Z\000\000\000\000\000\000\000L\000\000\000\000\000\000\000<\000\000\000\000\000\000\000V\000\000\000\000\000\000\000<\000\000\000\000\000\000\000H\000\000\000\000\000\000\000M\000\000\000\000\000\000\000R\000\000\000\000\000\000\000U\000\000\000\000\000\000\000Y\000\000\000\000\000\000\000S\000\000\000\000\000\000\000D\000\000\000\000\000\000\000N\000\000\000\000\000\000\0004\000\000\000\000\000\000\000G\000\000\000\000\000\000\000V\000\000\000\000\000\000\000J\000\000\000\000\000\000\000^\000\000\000\000\000\000\000;\000\000\000\000\000\000\000F\000\000\000\000\000\000\000H\000\000\000\000\000\000\000C\000\000\000\000\000\000\000?\000\000\000\000\000\000\000)\000\000\000\000\000\000\000\034\000\000\000\000\000\000\0006\000\000\000\000\000\000\000@\000\000\000\000\000\000\000J\000\000\000\000\000\000\000R\000\000\000\000\000\000\000H\000\000\000\000\000\000\000+\000\000\000\000\000\000\000E\000\000\000\000\000\000\0007\000\000\000\000\000\000\000U\000\000\000\000\000\000\000S\000\000\000\000\000\000\000R\000\000\000\000\000\000\000V\000\000\000\000\000\000\000H\000\000\000\000\000\000\000X\000\000\000\000\000\000\000G\000\000\000\000\000\000\000\007\000\000\000\000\000\000\000\005\000\000\000\000\000\000\000\010\000\000\000\000\000\000\000\006\000\000\000\000\000\000\000\005\000\000\000\000\000\000\000\006\000\000\000\000\000\000\000\010\000\000\000\000\000\000\000\t\000\000\000\000\000\000\000\013\000\000\000\000\000\000\000\010\000\000\000\000\000\000\000\013\000\000\000\000\000\000\000\014\000\000\000\000\000\000\000\013\000\000\000\000\000\000\000\017\000\000\000\000\000\000\000\t\000\000\000\000\000\000\000\016\000\000\000\000\000\000\000\013\000\000\000\000\000\000\000\021\000\000\000\000\000\000\000\023\000\000\000\000\000\000\000\021\000\000\000\000\000\000\000\022\000\000\000\000\000\000\000\020\000\000\000\000\000\000\000\021\000\000\000\000\000\000\000\031\000\000\000\000\000\000\000\036\000\000\000\000\000\000\000\026\000\000\000\000\000\000\000\036\000\000\000\000\000\000\000\035\000\000\000\000\000\000\000\016\000\000\000\000\000\000\000\033\000\000\000\000\000\000\000 \000\000\000\000\000\000\000%\000\000\000\000\000\000\000\037\000\000\000\000\000\000\000\032\000\000\000\000\000\000\000!\000\000\000\000\000\000\000&\000\000\000\000\000\000\000$\000\000\000\000\000\000\000\035\000\000\000\000\000\000\000#\000\000\000\000\000\000\000\032\000\000\000\000\000\000\000\035\000\000\000\000\000\000\000)\000\000\000\000\000\000\000$\000\000\000\000\000\000\000.\000\000\000\000\000\000\000,\000\000\000\000\000\000\000*\000\000\000\000\000\000\0005\000\000\000\000\000\000\000&\000\000\000\000\000\000\000\032\000\000\000\000\000\000\000,\000\000\000\000\000\000\000%\000\000\000\000\000\000\000<\000\000\000\000\000\000\0008\000\000\000\000\000\000\0006\000\000\000\000\000\000\0006\000\000\000\000\000\000\000(\000\000\000\000\000\000\0008\000\000\000\000\000\000\000-\000\000\000\000\000\000\0001\000\000\000\000\000\000\000(\000\000\000\000\000\000\0000\000\000\000\000\000\000\0001\000\000\000\000\000\000\0003\000\000\000\000\000\000\0004\000\000\000\000\000\000\0000\000\000\000\000\000\000\000-\000\000\000\000\000\000\0003\000\000\000\000\000\000\0007\000\000\000\000\000\000\0009\000\000\000\000\000\000\000,\000\000\000\000\000\000\000\'\000\000\000\000\000\000\000B\000\000\000\000\000\000\000\032\000\000\000\000\000\000\000G\000\000\000\000\000\000\000(\000\000\000\000\000\000\000<\000\000\000\000\000\000\000(\000\000\000\000\000\000\000A\000\000\000\000\000\000\000T\000\000\000\000\000\000\000&\000\000\000\000\000\000\000B\000\000\000\000\000\000\000;\000\000\000\000\000\000\000:\000\000\000\000\000\000\000.\000\000\000\000\000\000\0007\000\000\000\000\000\000\000A\000\000\000\000\000\000\000%\000\000\000\000\000\000\0005\000\000\000\000\000\000\000)\000\000\000\000\000\000\000M\000\000\000\000\000\000\000O\000\000\000\000\000\000\0003\000\000\000\000\000\000\000J\000\000\000\000\000\000\0003\000\000\000\000\000\000\000A\000\000\000\000\000\000\000K\000\000\000\000\000\000\000G\000\000\000\000\000\000\000)\000\000\000\000\000\000\000;\000\000\000\000\000\000\000E\000\000\000\000\000\000\0007\000\000\000\000\000\000\0006\000\000\000\000\000\000\000N\000\000\000\000\000\000\000D\000\000\000\000\000\000\000Q\000\000\000\000\000\000\000M\000\000\000\000\000\000\000L\000\000\000\000\000\000\0009\000\000\000\000\000\000\000I\000\000\000\000\000\000\000L\000\000\000\000\000\000\0005\000\000\000\000\000\000\000G\000\000\000\000\000\000\000\036\000\000\000\000\000\000\000B\000\000\000\000\000\000\000]\000\000\000\000\000\000\000S\000\000\000\000\000\000\000W\000\000\000\000\000\000\0004\000\000\000\000\000\000\000S\000\000\000\000\000\000\000K\000\000\000\000\000\000\000P\000\000\000\000\000\000\000F\000\000\000\000\000\000\000J\000\000\000\000\000\000\000B\000\000\000\000\000\000\000N\000\000\000\000\000\000\000K\000\000\000\000\000\000\000L\000\000\000\000\000\000\000O\000\000\000\000\000\000\000<\000\000\000\000\000\000\000D\000\000\000\000\000\000\000C\000\000\000\000\000\000\000>\000\000\000\000\000\000\000L\000\000\000\000\000\000\000?\000\000\000\000\000\000\000A\000\000\000\000\000\000\000L\000\000\000\000\000\000\000<\000\000\000\000\000\000\000E\000\000\000\000\000\000\000[\000\000\000\000\000\000\000/\000\000\000\000\000\000\000#\000\000\000\000\000\000\000;\000\000\000\000\000\000\000H\000\000\000\000\000\000\000Q\000\000\000\000\000\000\000^\000\000\000\000\000\000\000N\000\000\000\000\000\000\000D\000\000\000\000\000\000\000J\000\000\000\000\000\000\000M\000\000\000\000\000\000\000A\000\000\000\000\000\000\000W\000\000\000\000\000\000\000F\000\000\000\000\000\000\000K\000\000\000\000\000\000\0006\000\000\000\000\000\000\000=\000\000\000\000\000\000\000<\000\000\000\000\000\000\000G\000\000\000\000\000\000\000K\000\000\000\000\000\000\000Y\000\000\000\000\000\000\000Y\000\000\000\000\000\000\000P\000\000\000\000\000\000\0009\000\000\000\000\000\000\000A\000\000\000\000\000\000\0000\000\000\000\000\000\000\000O\000\000\000\000\000\000\000?\000\000\000\000\000\000\000I\000\000\000\000\000\000\000J\000\000\000\000\000\000\000R\000\000\000\000\000\000\000]\000\000\000\000\000\000\000:\000\000\000\000\000\000\000L\000\000\000\000\000\000\000G\000\000\000\000\000\000\000K\000\000\000\000\000\000\0002\000\000\000\000\000\000\000P\000\000\000\000\000\000\000H\000\000\000\000\000\000\000U\000\000\000\000\000\000\000?\000\000\000\000\000\000\000?\000\000\000\000\000\000\000T\000\000\000\000\000\000\000Z\000\000\000\000\000\000\000_\000\000\000\000\000\000\000=\000\000\000\000\000\000\000N\000\000\000\000\000\000\000@\000\000\000\000\000\000\000B\000\000\000\000\000\000\000L\000\000\000\000\000\000\000>\000\000\000\000\000\000\000T\000\000\000\000\000\000\000T\000\000\000\000\000\000\000F\000\000\000\000\000\000\000T\000\000\000\000\000\000\000/\000\000\000\000\000\000\000;\000\000\000\000\000\000\000J\000\000\000\000\000\000\000(\000\000\000\000\000\000\000]\000\000\000\000\000\000\000<\000\000\000\000\000\000\000>\000\000\000\000\000\000\0005\000\000\000\000\000\000\000S\000\000\000\000\000\000\000K\000\000\000\000\000\000\0000\000\000\000\000\000\000\000E\000\000\000\000\000\000\000+\000\000\000\000\000\000\000I\000\000\000\000\000\000\000F\000\000\000\000\000\000\000S\000\000\000\000\000\000\000H\000\000\000\000\000\000\000R\000\000\000\000\000\000\000L\000\000\000\000\000\000\000\\\000\000\000\000\000\000\000=\000\000\000\000\000\000\000\037\000\000\000\000\000\000\000?\000\000\000\000\000\000\000M\000\000\000\000\000\000\000L\000\000\000\000\000\000\000Z\000\000\000\000\000\000\0001\000\000\000\000\000\000\000>\000\000\000\000\000\000\000[\000\000\000\000\000\000\000X\000\000\000\000\000\000\0006\000\000\000\000\000\000\000D\000\000\000\000\000\000\000X\000\000\000\000\000\000\0005\000\000\000\000\000\000\000H\000\000\000\000\000\000\000I\000\000\000\000\000\000\0004\000\000\000\000\000\000\000"
      }
    }
  }
}
node {
  name: "tensors/component_1"
  op: "Const"
  device: "/device:CPU:0"
  attr {
    key: "_output_shapes"
    value {
      list {
        shape {
          dim {
            size: 301
          }
        }
      }
    }
  }
  attr {
    key: "dtype"
    value {
      type: DT_INT64
    }
  }
  attr {
    key: "value"
    value {
      tensor {
        dtype: DT_INT64
        tensor_shape {
          dim {
            size: 301
          }
        }
        tensor_content: "\021\000\000\000\000\000\000\000\021\000\000\000\000\000\000\000\021\000\000\000\000\000\000\000\021\000\000\000\000\000\000\000\022\000\000\000\000\000\000\000\022\000\000\000\000\000\000\000\020\000\000\000\000\000\000\000\024\000\000\000\000\000\000\000\020\000\000\000\000\000\000\000\023\000\000\000\000\000\000\000\022\000\000\000\000\000\000\000\021\000\000\000\000\000\000\000\024\000\000\000\000\000\000\000\024\000\000\000\000\000\000\000\023\000\000\000\000\000\000\000\023\000\000\000\000\000\000\000\017\000\000\000\000\000\000\000\023\000\000\000\000\000\000\000\023\000\000\000\000\000\000\000\021\000\000\000\000\000\000\000\023\000\000\000\000\000\000\000\023\000\000\000\000\000\000\000\024\000\000\000\000\000\000\000\024\000\000\000\000\000\000\000\023\000\000\000\000\000\000\000\021\000\000\000\000\000\000\000\024\000\000\000\000\000\000\000\025\000\000\000\000\000\000\000\022\000\000\000\000\000\000\000\026\000\000\000\000\000\000\000\025\000\000\000\000\000\000\000\023\000\000\000\000\000\000\000\024\000\000\000\000\000\000\000\024\000\000\000\000\000\000\000\020\000\000\000\000\000\000\000\024\000\000\000\000\000\000\000\024\000\000\000\000\000\000\000\023\000\000\000\000\000\000\000\024\000\000\000\000\000\000\000\022\000\000\000\000\000\000\000\023\000\000\000\000\000\000\000\023\000\000\000\000\000\000\000\022\000\000\000\000\000\000\000\024\000\000\000\000\000\000\000\023\000\000\000\000\000\000\000\025\000\000\000\000\000\000\000\023\000\000\000\000\000\000\000\025\000\000\000\000\000\000\000\023\000\000\000\000\000\000\000\025\000\000\000\000\000\000\000\024\000\000\000\000\000\000\000\024\000\000\000\000\000\000\000\025\000\000\000\000\000\000\000\022\000\000\000\000\000\000\000\025\000\000\000\000\000\000\000\025\000\000\000\000\000\000\000\022\000\000\000\000\000\000\000\020\000\000\000\000\000\000\000\021\000\000\000\000\000\000\000\022\000\000\000\000\000\000\000\022\000\000\000\000\000\000\000\021\000\000\000\000\000\000\000\020\000\000\000\000\000\000\000\024\000\000\000\000\000\000\000\017\000\000\000\000\000\000\000\023\000\000\000\000\000\000\000\021\000\000\000\000\000\000\000\021\000\000\000\000\000\000\000\023\000\000\000\000\000\000\000\023\000\000\000\000\000\000\000\023\000\000\000\000\000\000\000 \000\000\000\000\000\000\000 \000\000\000\000\000\000\000 \000\000\000\000\000\000\000 \000\000\000\000\000\000\000\037\000\000\000\000\000\000\000 \000\000\000\000\000\000\000!\000\000\000\000\000\000\000 \000\000\000\000\000\000\000\037\000\000\000\000\000\000\000\"\000\000\000\000\000\000\000 \000\000\000\000\000\000\000 \000\000\000\000\000\000\000\036\000\000\000\000\000\000\000 \000\000\000\000\000\000\000\037\000\000\000\000\000\000\000\037\000\000\000\000\000\000\000 \000\000\000\000\000\000\000 \000\000\000\000\000\000\000 \000\000\000\000\000\000\000\036\000\000\000\000\000\000\000\031\000\000\000\000\000\000\000\035\000\000\000\000\000\000\000\036\000\000\000\000\000\000\000\036\000\000\000\000\000\000\000\035\000\000\000\000\000\000\000\037\000\000\000\000\000\000\000\034\000\000\000\000\000\000\000\035\000\000\000\000\000\000\000\037\000\000\000\000\000\000\000\033\000\000\000\000\000\000\000\035\000\000\000\000\000\000\000\034\000\000\000\000\000\000\000\036\000\000\000\000\000\000\000\036\000\000\000\000\000\000\000\035\000\000\000\000\000\000\000\035\000\000\000\000\000\000\000\031\000\000\000\000\000\000\000\034\000\000\000\000\000\000\000\036\000\000\000\000\000\000\000\035\000\000\000\000\000\000\000\037\000\000\000\000\000\000\000\036\000\000\000\000\000\000\000\031\000\000\000\000\000\000\000\033\000\000\000\000\000\000\000\034\000\000\000\000\000\000\000\030\000\000\000\000\000\000\000\033\000\000\000\000\000\000\000\034\000\000\000\000\000\000\000\035\000\000\000\000\000\000\000\036\000\000\000\000\000\000\000\032\000\000\000\000\000\000\000\032\000\000\000\000\000\000\000\031\000\000\000\000\000\000\000\033\000\000\000\000\000\000\000\032\000\000\000\000\000\000\000\032\000\000\000\000\000\000\000\031\000\000\000\000\000\000\000\032\000\000\000\000\000\000\000\032\000\000\000\000\000\000\000\033\000\000\000\000\000\000\000\034\000\000\000\000\000\000\000\034\000\000\000\000\000\000\000\033\000\000\000\000\000\000\000\031\000\000\000\000\000\000\000\034\000\000\000\000\000\000\000\033\000\000\000\000\000\000\000\032\000\000\000\000\000\000\000\033\000\000\000\000\000\000\000\033\000\000\000\000\000\000\000\032\000\000\000\000\000\000\000\035\000\000\000\000\000\000\000\030\000\000\000\000\000\000\000\032\000\000\000\000\000\000\000\032\000\000\000\000\000\000\000\035\000\000\000\000\000\000\000\031\000\000\000\000\000\000\000\032\000\000\000\000\000\000\000\032\000\000\000\000\000\000\000\027\000\000\000\000\000\000\000\031\000\000\000\000\000\000\000\030\000\000\000\000\000\000\000\027\000\000\000\000\000\000\000\031\000\000\000\000\000\000\000\033\000\000\000\000\000\000\000\033\000\000\000\000\000\000\000\027\000\000\000\000\000\000\000\032\000\000\000\000\000\000\000\032\000\000\000\000\000\000\000\034\000\000\000\000\000\000\000\031\000\000\000\000\000\000\000\030\000\000\000\000\000\000\000\032\000\000\000\000\000\000\000\030\000\000\000\000\000\000\000\027\000\000\000\000\000\000\000\030\000\000\000\000\000\000\000\031\000\000\000\000\000\000\000\027\000\000\000\000\000\000\000\032\000\000\000\000\000\000\000\030\000\000\000\000\000\000\000\031\000\000\000\000\000\000\000\032\000\000\000\000\000\000\000\027\000\000\000\000\000\000\000\026\000\000\000\000\000\000\000\031\000\000\000\000\000\000\000\030\000\000\000\000\000\000\000\030\000\000\000\000\000\000\000\026\000\000\000\000\000\000\000\032\000\000\000\000\000\000\000\030\000\000\000\000\000\000\000\025\000\000\000\000\000\000\000\027\000\000\000\000\000\000\000\027\000\000\000\000\000\000\000\026\000\000\000\000\000\000\000\027\000\000\000\000\000\000\000\027\000\000\000\000\000\000\000\026\000\000\000\000\000\000\000\026\000\000\000\000\000\000\000\030\000\000\000\000\000\000\000\030\000\000\000\000\000\000\000\027\000\000\000\000\000\000\000\027\000\000\000\000\000\000\000\026\000\000\000\000\000\000\000\030\000\000\000\000\000\000\000\025\000\000\000\000\000\000\000\026\000\000\000\000\000\000\000\026\000\000\000\000\000\000\000\031\000\000\000\000\000\000\000\025\000\000\000\000\000\000\000\030\000\000\000\000\000\000\000\030\000\000\000\000\000\000\000\027\000\000\000\000\000\000\000\030\000\000\000\000\000\000\000\027\000\000\000\000\000\000\000\027\000\000\000\000\000\000\000\026\000\000\000\000\000\000\000\027\000\000\000\000\000\000\000\027\000\000\000\000\000\000\000\031\000\000\000\000\000\000\000\026\000\000\000\000\000\000\000\030\000\000\000\000\000\000\000\027\000\000\000\000\000\000\000\027\000\000\000\000\000\000\000\024\000\000\000\000\000\000\000\030\000\000\000\000\000\000\000\026\000\000\000\000\000\000\000\026\000\000\000\000\000\000\000\031\000\000\000\000\000\000\000\025\000\000\000\000\000\000\000\026\000\000\000\000\000\000\000\026\000\000\000\000\000\000\000\025\000\000\000\000\000\000\000\026\000\000\000\000\000\000\000\025\000\000\000\000\000\000\000\026\000\000\000\000\000\000\000\030\000\000\000\000\000\000\000\030\000\000\000\000\000\000\000\026\000\000\000\000\000\000\000\025\000\000\000\000\000\000\000\025\000\000\000\000\000\000\000\025\000\000\000\000\000\000\000\025\000\000\000\000\000\000\000\030\000\000\000\000\000\000\000\025\000\000\000\000\000\000\000\024\000\000\000\000\000\000\000\031\000\000\000\000\000\000\000\026\000\000\000\000\000\000\000\026\000\000\000\000\000\000\000\022\000\000\000\000\000\000\000\022\000\000\000\000\000\000\000\026\000\000\000\000\000\000\000\025\000\000\000\000\000\000\000\025\000\000\000\000\000\000\000\025\000\000\000\000\000\000\000\025\000\000\000\000\000\000\000\030\000\000\000\000\000\000\000\025\000\000\000\000\000\000\000\024\000\000\000\000\000\000\000\025\000\000\000\000\000\000\000\026\000\000\000\000\000\000\000\027\000\000\000\000\000\000\000\024\000\000\000\000\000\000\000\025\000\000\000\000\000\000\000\025\000\000\000\000\000\000\000\026\000\000\000\000\000\000\000\025\000\000\000\000\000\000\000\025\000\000\000\000\000\000\000\017\000\000\000\000\000\000\000\025\000\000\000\000\000\000\000\024\000\000\000\000\000\000\000\025\000\000\000\000\000\000\000\025\000\000\000\000\000\000\000\025\000\000\000\000\000\000\000\025\000\000\000\000\000\000\000\023\000\000\000\000\000\000\000\027\000\000\000\000\000\000\000\023\000\000\000\000\000\000\000\025\000\000\000\000\000\000\000\025\000\000\000\000\000\000\000\022\000\000\000\000\000\000\000\026\000\000\000\000\000\000\000\026\000\000\000\000\000\000\000\025\000\000\000\000\000\000\000\024\000\000\000\000\000\000\000\023\000\000\000\000\000\000\000\025\000\000\000\000\000\000\000\023\000\000\000\000\000\000\000\023\000\000\000\000\000\000\000\024\000\000\000\000\000\000\000\025\000\000\000\000\000\000\000\024\000\000\000\000\000\000\000\023\000\000\000\000\000\000\000\024\000\000\000\000\000\000\000\024\000\000\000\000\000\000\000\025\000\000\000\000\000\000\000\023\000\000\000\000\000\000\000\025\000\000\000\000\000\000\000\023\000\000\000\000\000\000\000\031\000\000\000\000\000\000\000\024\000\000\000\000\000\000\000\027\000\000\000\000\000\000\000\025\000\000\000\000\000\000\000\024\000\000\000\000\000\000\000\023\000\000\000\000\000\000\000\020\000\000\000\000\000\000\000\024\000\000\000\000\000\000\000\023\000\000\000\000\000\000\000\024\000\000\000\000\000\000\000\024\000\000\000\000\000\000\000\024\000\000\000\000\000\000\000\022\000\000\000\000\000\000\000"
      }
    }
  }
}
node {
  name: "tensors/component_2"
  op: "Const"
  device: "/device:CPU:0"
  attr {
    key: "_output_shapes"
    value {
      list {
        shape {
          dim {
            size: 301
          }
        }
      }
    }
  }
  attr {
    key: "dtype"
    value {
      type: DT_DOUBLE
    }
  }
  attr {
    key: "value"
    value {
      tensor {
        dtype: DT_DOUBLE
        tensor_shape {
          dim {
            size: 301
          }
        }
        tensor_content: "\273Y(>\343\207\374?\0206\206Jm\023\367?#I\020\256\200\342\000@\000\000\000\000\000\000\000@\000\000\000\000\000\000\000@\000\000\000\000\000\000\000@\000\000\000\000\000\000\000@\000\000\000\000\000\000\000@\000\000\000\000\000\000\000@\000\000\000\000\000\000\000@\000\000\000\000\000\000\000@\315\314\314\314\314\314\000@\315\314\314\314\314\314\000@\315\314\314\314\314\314\000@\315\314\314\314\314\314\000@\315\314\314\314\314\314\000@\315\314\314\314\314\314\000@\315\314\314\314\314\314\000@\232\231\231\231\231\231\001@\232\231\231\231\231\231\001@\232\231\231\231\231\231\001@\232\231\231\231\231\231\001@\232\231\231\231\231\231\001@\232\231\231\231\231\231\001@ffffff\002@ffffff\002@ffffff\002@ffffff\002@ffffff\002@ffffff\002@ffffff\002@ffffff\002@333333\003@333333\003@333333\003@333333\003@333333\003@\000\000\000\000\000\000\004@\000\000\000\000\000\000\004@\000\000\000\000\000\000\004@\000\000\000\000\000\000\004@\000\000\000\000\000\000\004@\000\000\000\000\000\000\004@\000\000\000\000\000\000\004@\315\314\314\314\314\314\004@\315\314\314\314\314\314\004@\315\314\314\314\314\314\004@\315\314\314\314\314\314\004@\232\231\231\231\231\231\005@\232\231\231\231\231\231\005@\232\231\231\231\231\231\005@ffffff\006@\340\202lY\276\016\002@\237\005\241\274\217\263\002@\331\277\241\246L\200\003@k\177g{\3646\n@\314\315\334\350\010\305\375?T\3131\264\225\362\374?\010&\222C\037G\003@\222\276Z\377\370\\\000@\307\017\225F\314\354\376?\216wG\306j#\003@\227\306/\274\222\024\002@\331\014\313\372(\256\006@e\337\025\301\377\326\000@x\'\237\036\3332\002@O(\237y\224E\001@\264\234:E\375T\001@\030!<\3328B\376?\376\216\362\335\367Y\373?\373X\301oC\014\000@q\360;<:\004\017@\200E~\375\020\203\020@\303\323+e\031b\022@L\216;\245\203%\020@@,@\200\261\333\022@\310\037\261\202\204\005\023@ffffff\022@333333\023@;\216\037*\215\270\020@e<\245\336\256\262\r@a\236\337A\375\330\020@\007y=\230\024_\016@\027V\340\032\216-\t@\353t{\244\034\'\014@S\027:\300\335c\023@\315\314\314\314\314\314\020@\310w\316\273V\347\016@\000\000\000\000\000\000\020@ffffff\020@ffffff\016@\226\2771\272r\234\017@\000\000\000\000\000\000\022@ffffff\020@ffffff\016@\315\314\314\314\314\314\020@\315\314\314\314\314\314\020@333333\013@\000\000\000\000\000\000\022@Ku\001/3\014\021@\315\314\314\314\314\314\020@333333\021@ffffff\n@\315\314\314\314\314\314\014@\000\000\000\000\000\000\014@333333\007@\005\024\352\351#\320\r@1Bx\264q\004\016@333333\013@\000\000\000\000\000\000\014@\232\231\231\231\231\231\t@\315\314\314\314\314\314\010@\000\000\000\000\000\000\014@\232\231\231\231\231\231\t@\315\314\314\314\314\314\014@\315\314\314\314\314\314\010@\3361\206\203\316U\t@ffffff\016@\315\314\314\314\314\314\010@333333\007@\232\231\231\231\231\231\t@\232\231\231\231\231\231\t@ffffff\016@\232\231\231\231\231\231\r@ffffff\016@\315\314\314\314\314\314\014@333333\021@\315\314\314\314\314\314\014@\315\314\314\314\314\314\014@\232\231\231\231\231\231\t@ffffff\n@\232\231\231\231\231\231\r@\232\231\231\231\231\231\t@\000\000\000\000\000\000\014@ffffff\n@\315\314\314\314\314\314\004@\315\314\314\314\314\314\010@\000\000\000\000\000\000\010@\000\000\000\000\000\000\014@\000\000\000\000\000\000\010@ffffff\016@\000\000\000\000\000\000\004@\000\000\000\000\000\000\014@333333\007@\232\231\231\231\231\231\t@\301\333\315\235\252\014\004@\232\231\231\231\231\231\t@\315\314\314\314\314\314\010@\232\231\231\231\231\231\t@\000\000\000\000\000\000\014@\000\000\000\000\000\000\010@\315\314\314\314\314\314\014@\275U\327\241\232\202\006@\232\231\231\231\231\231\t@333333\007@\000\000\000\000\000\000\004@\000\000\000\000\000\000\010@\000\000\000\000\000\000\004@333333\007@\232\231\231\231\231\231\005@\000\000\000\000\000\000\014@ffffff\020@ffffff\006@333333\007@ffffff\002@333333\007@ffffff\006@\315\314\314\314\314\314\010@w\236x\316\026\220\005@\000\000\000\000\000\000\010@\315\314\314\314\314\314\004@\315\314\314\314\314\314\010@2z\311Z\236\022\001@\315\314\314\314\314\314\010@\232\231\231\231\231\231\t@\315\314\314\314\314\314\010@\232\231\231\231\231\231\t@\315\314\314\314\314\314\004@ffffff\002@\000\000\000\000\000\000\010@\232\231\231\231\231\231\t@\232\231\231\231\231\231\t@ffffff\006@\232\231\231\231\231\231\005@\232\231\231\231\231\231\001@\232\231\231\231\231\231\t@\315\314\314\314\314\314\014@\000\000\000\000\000\000\010@\232\231\231\231\231\231\t@\232\231\231\231\231\231\005@\000\000\000\000\000\000\010@\244m\374\211\312F\376?\000\000\000\000\000\000\010@\315\314\314\314\314\314\004@\000\000\000\000\000\000\010@333333\007@\232\231\231\231\231\231\t@\315\314\314\314\314\314\000@\232\231\231\231\231\231\r@\000\000\000\000\000\000\004@\000\000\000\000\000\000\004@ffffff\006@\232\231\231\231\231\231\005@ffffff\006@\232\231\231\231\231\231\t@333333\007@333333\007@\2259\247\243-\350\005@\232\231\231\231\231\231\001@\000\000\000\000\000\000\010@\000\000\000\000\000\000\004@333333\007@333333\003@ffffff\006@\000\000\000\000\000\000\010@ffffff\006@ffffff\006@\315\314\314\314\314\314\010@\000\000\000\000\000\000\010@\232\231\231\231\231\231\005@\315\314\314\314\314\314\000@\315\314\314\314\314\314\000@\315\314\314\314\314\314\000@\232\231\231\231\231\231\005@ffffff\006@\022\332r.\305\325\375?333333\003@\315\314\314\314\314\314\004@333333\007@333333\003@ffffff\006@ffffff\006@a\236\337A\375\270\002@\342`\312\033\273\217\001@\347\367\242\342\244U\376?\315\314\314\314\314\314\000@\000\000\000\000\000\000\004@ffffff\006@\317FS\342\337\214\377?\357\271\002\300g\332\375?\256\362\004\302NA\001@\232\231\231\231\231\231\001@\315\314\314\314\314\314\004@\315\314\314\314\314\314\004@\232\231\231\231\231\231\005@\232\231\231\231\231\231\005@\315\314\314\314\314\314\000@333333\003@\315\314\314\314\314\314\004@ffffff\006@n\375OY\250\260\374?\232\231\231\231\231\231\001@333333\003@\000\000\000\000\000\000\004@LU\332\342\032_\000@\357\227\005\311\361\031\377?\311\226@\245\245\255\000@\232\231\231\231\231\231\001@\315\314\314\314\314\314\004@\315\314\314\314\314\314\004@\315\314\314\314\314\314\004@A\r\337\302\272A\003@\000\000\000\000\000\000\000@333333\003@\232\231\231\231\231\231\005@333333\007@\200F\351\322\277\004\003@\016\314\300\267\237\202\373?\232\231\231\231\231\231\001@333333\003@ffffff\006@\322!\313\335B\362\000@ffffff\002@\000\000\000\000\000\000\004@\315\314\314\314\314\314\004@\315\314\314\314\314\314\004@\305pu\000\304\335\001@\232\231\231\231\231\231\001@\232\231\231\231\231\231\001@ffffff\002@ffffff\002@\000\000\000\000\000\000\004@\315\314\314\314\314\314\004@\315\314\314\314\314\314\004@333333\007@\276\223\005\002Sl\004@ffffff\002@\000\000\000\000\000\000\004@\000\000\000\000\000\000\004@\000\000\000\000\000\000\004@\315\314\314\314\314\314\004@\315\314\314\314\314\314\004@-B\261\0254\355\002@\000\000\000\000\000\000\000@ffffff\002@333333\003@333333\003@\315\314\314\314\314\314\010@r\301\031\374\375\342\000@p-\356\232\353\337\003@\213\017\375$\210\204\364?"
      }
    }
  }
}
node {
  name: "tensors/component_3"
  op: "Const"
  device: "/device:CPU:0"
  attr {
    key: "_output_shapes"
    value {
      list {
        shape {
          dim {
            size: 301
          }
        }
      }
    }
  }
  attr {
    key: "dtype"
    value {
      type: DT_DOUBLE
    }
  }
  attr {
    key: "value"
    value {
      tensor {
        dtype: DT_DOUBLE
        tensor_shape {
          dim {
            size: 301
          }
        }
        tensor_content: "\240\032/\335t\334\317@\333\371~j|\242\304@\201\225C\213L@\313@\325x\351&\261\317\317@R\270\036\205;:\322@\343\245\233\304\010|\322@\254\034Zd[-\320@T\343\245\233\004\200\325@Nb\020X\021\332\321@=\n\327\243\300i\324@\370S\343\245\023\313\322@h\221\355|\307\000\323@\203\300\312\241\255U\323@7\211A`\035\377\327@\262\235\357\247\3165\321@H\341z\024\216\276\323@\000\000\000\0008\361\322@o\022\203\300\372\203\317@\345\320\"\333\031\365\320@T\343\245\233\244\t\323@T\343\245\233\274\037\324@1\010\254\034\222\\\325@\354Q\270\036]\252\330@q=\n\327\2235\325@\014\002+\207f\252\325@o\022\203\3002\200\322@\343\245\233\304\240\001\327@\010\254\034Z$+\326@{\024\256GQ\331\323@L7\211A\240\362\327@R\270\036\205\303\232\330@+\207\026\331\346$\324@/\335$\006\221A\331@u\223\030\004\356h\330@\327\243p=\362T\320@\010\254\034Z\304F\326@\354Q\270\036]\252\330@Nb\020X\331\'\322@\024\256G\341\032\013\326@\205\353Q\270^I\322@Nb\020X\341{\324@\262\235\357\2476\364\322@\364\375\324x\021\266\321@\343\245\233\304\260\025\330@\272I\014\002\013S\326@u\223\030\004\316\377\330@3333Sy\324@{\024\256G!\266\330@h\221\355|\217\362\321@h\221\355|\217\230\330@\354Q\270\036]\252\330@\244p=\n\027n\326@\240\032/\335\\B\327@\236\357\247\306\3534\321@\262\235\357\247\006 \327@\351&1\010l\220\326@\260rh\221\275\270\316@o\022\203\300J\220\321@o\022\203\300z[\325@3333\363\037\323@\236\357\247\306\333X\322@sh\221\355\214>\313@=\n\327\243\360+\317@\236\357\247\306\243\211\326@\\\217\302\365\330\244\320@\035Zd;\267\260\322@\014\002+\2076|\322@T\343\245\233\244\t\323@\211A`\3458\300\323@}?5^\022R\321@\362\322Mb\260\225\320@\000\000\000\000@f\320@\000\000\000\000\000\351\317@\000\000\000\000\300\035\333@\000\000\000\000@\364\321@\000\000\000\000\000\330\322@\000\000\000\000@\214\324@\000\000\000\000\300\332\323@\000\000\000\000@\330\330@\000\000\000\000\200\323\326@\000\000\000\000@i\327@\000\000\000\000\300[\336@\000\000\000\000\300\\\335@\000\000\000\000\000\304\326@\000\000\000\000\000o\327@\000\000\000\000\200\350\327@\000\000\000\000\000i\333@\000\000\000\000\300\306\326@\000\000\000\000@\217\334@\000\000\000\000@\365\334@\000\000\000\000\300\370\334@\000\000\000\000\000\362\344@\000\000\000\000\3009\350@\000\000\000\000\000+\340@\000\000\000\000\000\262\327@\000\000\000\000\300k\333@\000\000\000\000\300a\340@\000\000\000\000@\254\327@\000\000\000\000\000\013\340@\000\000\000\000\200f\332@\000\000\000\000\300e\321@\000\000\000\000\340f\344@\000\000\000\000 \225\344@\000\000\000\000\200v\335@\000\000\000\000\300K\343@\000\000\000\000\000\232\334@\000\000\000\000\000\317\333@\000\000\000\000 \346\345@\000\000\000\000`\335\340@\000\000\000\000\0006\341@\000\000\000\000\340$\341@\000\000\000\000 \317\342@\000\000\000\000@>\345@\000\000\000\000\240\366\344@\000\000\000\000 \373\341@\000\000\000\000\240&\341@\000\000\000\000`\205\345@\000\000\000\000 \242\341@\000\000\000\000\340\325\340@\000\000\000\000\000\310\330@\000\000\000\000`P\341@\000\000\000\000\000\250\337@\000\000\000\000 \221\341@\000\000\000\000\240g\344@\000\000\000\000\000\025\342@\000\000\000\000\3007\336@\000\000\000\000\300\315\343@\000\000\000\000\300\267\333@\000\000\000\000@P\347@\000\000\000\000`F\342@\000\000\000\000\200\215\342@\000\000\000\000@\366\341@\000\000\000\000@`\347@\000\000\000\000\000\301\311@\000\000\000\000\000\217\340@\000\000\000\000`\207\343@\033/\335$\206!\334@\000\000\000\000`\001\343@\325x\351&\311U\335@\000\000\000\000 \227\343@\000\000\000\000\200\202\333@\000\000\000\000@L\351@\000\000\000\000\000\302\331@\000\000\000\000\200\235\341@\221\355|?e\036\334@\000\000\000\000@\370\346@\000\000\000\000\240N\341@\000\000\000\000 \363\341@\000\000\000\000`\301\344@\000\000\000\000@\003\340@\000\000\000\000 \224\340@\000\000\000\000\340\025\347@\000\000\000\000\000@\347@\000\000\000\000\200\236\340@\000\000\000\000\300\005\331@\000\000\000\000\200\r\333@h\221\355|G\021\334@\000\000\000\000\240d\350@\000\000\000\000@\250\336@\000\000\000\000\000\253\334@\000\000\000\000\240\024\344@\000\000\000\000`W\342@\000\000\000\000\240\377\341@\000\000\000\000\300\017\340@\000\000\000\000\200\370\340@\000\000\000\000\000\252\333@\000\000\000\000\000\230\344@\000\000\000\000\000)\341@\000\000\000\000\000\235\340@\000\000\000\000\000\026\342@\000\000\000\000\340\305\341@\000\000\000\000@\014\337@\010\254\034Z\204\317\332@\000\000\000\000@\327\344@\000\000\000\000@j\344@\000\000\000\000\000}\343@\000\000\000\000@ \343@\000\000\000\000@\001\341@\000\000\000\000\000o\334@\000\000\000\000\240\231\342@\000\000\000\000 \204\341@\000\000\000\000@;\332@\000\000\000\000 \270\344@\000\000\000\000\200,\340@\000\000\000\000\200(\342@\000\000\000\000\200<\336@\000\000\000\000\300H\342@\000\000\000\000@\232\332@\000\000\000\000\240$\341@\000\000\000\000`\277\340@\000\000\000\000\200N\333@\000\000\000\000\300W\341@\000\000\000\000\300\270\344@\000\000\000\000@\200\334@\000\000\000\000 c\344@\000\000\000\000 I\343@\000\000\000\000\000J\334@\000\000\000\000 \251\342@\000\000\000\000`\035\341@\000\000\000\000\200\263\340@\000\000\000\000\240p\340@\006\201\225C;7\336@\000\000\000\000\240\241\343@\000\000\000\000\340\340\343@\000\000\000\000@]\340@\000\000\000\000\240\004\343@\000\000\000\000\200&\341@\000\000\000\000\240\324\350@\000\000\000\000\300\375\331@ffff^l\331@\000\000\000\000\300\217\326@\000\000\000\000\200\236\336@\000\000\000\000\200<\322@\000\000\000\000\200\362\335@\000\000\000\000\200\327\342@\000\000\000\000\240\347\340@\000\000\000\000\300I\333@\000\000\000\000\200\024\342@\000\000\000\000 \017\343@\000\000\000\000\200\343\341@\000\000\000\000\200\023\334@b\020X9l\353\327@\010\254\034Z<\240\332@R\270\036\205\333\371\330@b\020X9$\250\332@+\207\026\331\036U\332@T\343\245\233L\365\332@\264\310v\276w@\330@L7\211A\230#\330@L7\211A\310\373\330@?5^\272\251\006\330@Nb\020X9\315\326@\033/\335$\246\226\331@`\345\320\"\003\227\331@D\213l\347\273\323\330@\362\322Mb@{\331@\354Q\270\036\215z\332@1\010\254\034R+\330@\301\312\241E\2165\324@\364\375\324x\0217\321@\203\300\312\2415{\326@+\207\026\331\206$\331@\033/\335$\246\002\326@\236\357\247\306\313+\330@u\223\030\004\366\246\330@L7\211A\220\265\327@\366(\\\217Rc\330@\203\300\312\241\rQ\330@1\010\254\034\352s\326@`\345\320\"\303\357\331@L7\211A0j\330@R\270\036\205\353x\330@\035Zd;_\201\325@\000\000\000\000H\200\323@\301\312\241E\336\336\326@\232\231\231\231\341\370\326@`\345\320\"\303t\327@)\\\217\302u\"\323@\311v\276\237*\276\326@\311v\276\237:\272\330@+\207\026\3316\262\330@\317\367S\343}Q\331@\024\256G\341\332\237\331@+\207\026\331\256\235\326@w\276\237\032\377g\323@L7\211A\210\367\331@D\213l\347kS\322@\262\235\357\247\376\030\327@\256G\341zL\177\327@\343\245\233\304p\016\321@\264\310v\276\327\332\330@1\010\254\034\212\031\331@)\\\217\302\r\270\326@\301\312\241E\246\310\327@\232\231\231\231\341\023\324@q=\n\327\223\200\331@`\345\320\"K\272\326@Zd;\337\217\257\323@\203\300\312\241\265>\330@\024\256G\341\262\214\327@\311v\276\237\372F\326@\364\375\324x\211^\324@\325x\351&A\370\330@7\211A`\025\253\326@\272I\014\002\233Q\331@\037\205\353Q\370~\323@\221\355|?E\346\326@q=\n\327s\351\321@\240\032/\335\224\317\331@\364\375\324xYH\327@\027\331\316\367\203\376\326@\037\205\353Q\270\342\330@L7\211A\030\001\322@\211A`\345\260\271\320@\317\367S\343\245\275\321@\264\310v\276\007\374\330@\002+\207\026\231\226\314@\033/\335$6`\330@\345\320\"\333\351\355\330@\024\256G\341BE\331@=\n\327\243\240\340\320@"
      }
    }
  }
}
node {
  name: "tensors/component_4"
  op: "Const"
  device: "/device:CPU:0"
  attr {
    key: "_output_shapes"
    value {
      list {
        shape {
          dim {
            size: 301
          }
        }
      }
    }
  }
  attr {
    key: "dtype"
    value {
      type: DT_DOUBLE
    }
  }
  attr {
    key: "value"
    value {
      tensor {
        dtype: DT_DOUBLE
        tensor_shape {
          dim {
            size: 301
          }
        }
        tensor_content: "=\225x\345\037\302\002@\313}\027[\255\370\004@\364\3476<\030\314\374?333333\003@\351FXT\304\211\376?\207K3\2022\022\003@\312o\321\311R\213\002@ \210\342D\252n\004@\314C\246|\010j\000@\357\240#\003\212\202\375?\251\006PB\237\036\000@\232\231\231\231\231\231\001@\315\314\314\314\314\314\004@L\201\026\\\275\224\002@3H\013\341\342\242\001@+\021ME\317\202\004@\335Je@\254\215\001@}d)H\"\312\374?\315\314\314\314\314\314\000@\000\000\000\000\000\000\004@\340\311]:\234_\004@\201\206\355\335\325\321\000@I9N\300e$\003@^t\303\000\323\263\372?\315\314\314\314\314\314\000@\315\314\314\314\314\314\000@\315\314\314\314\314\314\000@\232\231\231\231\231\231\001@\232\231\231\231\231\231\001@333333\003@\301tZ\267A\r\000@\203y\331\300g\225\001@\315\314\314\314\314\314\000@\360\356\022\346\207\273\000@\221\216\274\275\265\235\007@N3\223^\212\021\000@I9N\300e$\003@\000\000\000\000\000\000\000@\232\231\231\231\231\231\001@\232\231\231\231\231\231\001@\232\231\231\231\231\231\001@\232\231\231\231\231\231\001@\315\314\314\314\314\314\004@ffffff\006@\232\231\231\231\231\231\005@\232\231\231\231\231\231\005@G\'\246fj\r\004@\233\306\366Z\320\373\005@\315\314\314\314\314\314\000@333333\003@333333\003@333333\003@\315\314\314\314\314\314\000@\315\314\314\314\314\314\000@\315\314\314\314\314\314\000@\232\231\231\231\231\231\001@\232\231\231\231\231\231\001@\303\324\226:\310{\003@\357\327\256\032\225\205\374?\302]\007\030\247\353\377?\223\313\332\0012/\376?(\363\217\276I\223\010@y\337BhN\250\375?\202\023\033=\310<\002@D\327*f)n\002@\221\372\241\210\373>\376?\306 f\345Mt\000@\307\007\342\341\342\255\003@\004\260\\\312T\274\376?\010\376\\\331\252i\004@\247\364\002\242\026\211\001@ffffff\020@\315\314\314\314\314\314\014@\213\232\371\037\252\232\016@333333\013@333333\023@ffffff\016@\232\231\231\231\231\231\023@\315\314\314\314\314\314\014@\232\231\231\231\231\231\r@ffffff\022@\000\000\000\000\000\000\020@333333\017@\232\231\231\231\231\231\t@\232\231\231\231\231\231\r@ffffff\n@\315\314\314\314\314\314\020@333333\013@ffffff\n@ffffff\n@zW\230\031\221\203\t@ffffff\016@\315\314\314\314\314\314\022@\315\314\314\314\314\314\014@}4\346\277Q\234\014@333333\013@333333\021@@\360\235=<P\005@\232\231\231\231\231\231\021@\000\000\000\000\000\000\010@r\030\314_!#\021@333333\007@\023\034M\3448\246\016@\217\253\221]i\371\001@ffffff\022@\231\224\314\373I\206\001@\232\231\231\231\231\231\005@333333\013@\315\314\314\314\314\314\010@ffffff\n@333333\003@\315\314\314\314\314\314\010@ffffff\n@\232\231\231\231\231\231\r@333333\013@\000\000\000\000\000\000\014@\000\000\000\000\000\000\014@333333\017@\000\000\000\000\000\000\004@\232\231\231\231\231\231\t@\000\000\000\000\000\000\004@\006\276\242[\257\371\t@\232\231\231\231\231\231\021@\232\231\231\231\231\231\r@\000\000\000\000\000\000\014@ffffff\002@ffffff\020@333333\021@\232\231\231\231\231\231\r@333333\007@\315\314\314\314\314\314\004@\315\314\314\314\314\314\014@\000\000\000\000\000\000\004@\315\314\314\314\314\314\004@\315\314\314\314\314\314\004@333333\007@\355\247\265\037\337D\013@\000\000\000\000\000\000\010@\315\314\314\314\314\314\010@\315\314\314\314\314\314\010@\315\314\314\314\314\314\014@\232\231\231\231\231\231\005@333333\017@@\257.]w\251\010@333333\017@\315\314\314\314\314\314\010@333333\007@333333\003@\315\314\314\314\314\314\010@333333\007@333333\007@\315\314\314\314\314\314\010@\000\000\000\000\000\000\004@\200{C\206\372\342\005@333333\013@\241\307\336A\242\257\010@\000\000\000\000\000\000\010@\232\231\231\231\231\231\001@\000\000\000\000\000\000\000@ffffff\002@\000\000\000\000\000\000\014@\\\373\247\300nu\020@\000\000\000\000\000\000\014@333333\003@K\201\273\242J\023\007@\232\231\231\231\231\231\001@\000\000\000\000\000\000\010@\315\314\314\314\314\314\004@ffffff\006@ffffff\006@ffffff\002@333333\007@\000\000\000\000\000\000\000@\214.o\016\327\252\004@333333\003@\000\000\000\000\000\000\010@333333\007@ffffff\002@ffffff\006@\\h\370`c\350\003@333333\007@\000\000\000\000\000\000\004@\2407\025\2510\366\013@\232\231\231\231\231\231\001@333333\007@\232\231\231\231\231\231\005@ffffff\n@ffffff\n@\232\231\231\231\231\231\001@\315\314\314\314\314\314\010@\000\000\000\000\000\000\004@\000\000\000\000\000\000\000@\211\216.\200:\357\006@+B\373\242N\372\010@\315\314\314\314\314\314\004@ffffff\006@\315\314\314\314\314\314\004@ffffff\006@\315\314\314\314\314\314\010@\232\231\231\231\231\231\001@\315\314\314\314\314\314\004@\305H\345\334\334n\010@\000\000\000\000\000\000\010@\000\000\000\000\000\000\004@\000\000\000\000\000\000\004@\231\362!\250\032\335\006@\315\314\314\314\314\314\004@F\240\260zv\377\007@\000\000\000\000\000\000\010@\000\000\000\000\000\000\004@333333\003@\000\000\000\000\000\000\004@\315\314\314\314\314\314\004@ffffff\006@333333\003@\232\231\231\231\231\231\005@\315\314\314\314\314\314\000@\315\314\314\314\314\314\004@ffffff\006@ffffff\006@\322\267\273\275Z\024\t@333333\007@b6\\?X\241\007@ffffff\002@Y\266 \245#z\001@\315\314\314\314\314\314\000@ffffff\002@333333\003@\315\314\314\314\314\314\004@\\\371v\\\236\330\t@\232\231\231\231\231\231\001@\232\231\231\231\231\231\001@333333\003@)\010\036\337\336u\t@\021\341_\004\215I\007@333333\007@\233Hzb\347\'\003@ffffff\002@\315\314\314\314\314\314\000@6\"\030\007\227\216\003@\336\001\236\264p\031\003@ffffff\n@\232\231\231\231\231\231\001@333333\003@ffffff\002@\315\314\314\314\314\314\004@333333\003@ffffff\006@Q\243\220dV\317\001@\315\314\314\314\314\314\004@\232\231\231\231\231\231\005@\000\000\000\000\000\000\000@\232\231\231\231\231\231\001@\232\231\231\231\231\231\001@\000\000\000\000\000\000\004@S\255*\240\365\365\001@q\010\260#i\022\377?O@\023a\303#\007@333333\003@\2242\251\241\r\000\004@]\342\310\003\221\205\000@t\316Oq\034x\010@\000\000\000\000\000\000\004@\270\325b\246\243\002\001@\315\314\314\314\314\314\004@\315\314\314\314\314\314\004@\000\000\000\000\000\000\004@\353\020I>\300\004\000@\000\000\000\000\000\000\000@ffffff\002@\315\314\314\314\314\314\004@l\251\315I9\351\365?\232\231\231\231\231\231\001@\014Q*\206Pz\000@ffffff\006@\036\243<\363r\270\372?C\021\234D\316|\000@\315\314\314\314\314\314\000@\000\000\000\000\000\000\004@\232\231\231\231\231\231\001@\315\314\314\314\314\314\004@?a?zy\300\003@\232\231\231\231\231\231\001@\022\023\324\360-\014\001@\232\231\231\231\231\231\001@ffffff\002@\232\231\231\231\231\231\001@\000\000\000\000\000\000\000@333333\003@333333\003@\315\314\314\314\314\314\000@\342\200L!F.\002@\221\325\255\236\223\316\004@U)\342\031\331\332\367?\232\231\231\231\231\231\005@\232\231\231\231\231\231\001@\276\002\207\006\030\214\002@\376\333\300xa&\376?\"\351.\344lu\000@\276\021\202\372;\000\002@\325\347j+\366\027\000@"
      }
    }
  }
}
node {
  name: "tensors/component_5"
  op: "Const"
  device: "/device:CPU:0"
  attr {
    key: "_output_shapes"
    value {
      list {
        shape {
          dim {
            size: 301
          }
        }
      }
    }
  }
  attr {
    key: "dtype"
    value {
      type: DT_DOUBLE
    }
  }
  attr {
    key: "value"
    value {
      tensor {
        dtype: DT_DOUBLE
        tensor_shape {
          dim {
            size: 301
          }
        }
        tensor_content: "\000\000\000\000\000\300\223@\000\000\000\000\000\240`@\000\000\000\000\200T\301@\000\000\000\000\000\234\251@\000\000\000\000\000\252\253@\000\000\000\000\0007\302@\000\000\000\000\000\332\270@\000\000\000\000\000.\320@\000\000\000\000\000_\273@\000\000\000\000\000b\276@\000\000\000\000\200\311\305@\000\000\000\000\000\265\275@\000\000\000\000\200\370\306@\000\000\000\000\200\234\305@\000\000\000\000\000\275\304@\000\000\000\000\200{\321@\000\000\000\000\000\242\271@\000\000\000\000\000&\301@\000\000\000\000\200H\310@\000\000\000\000\000\362\303@\000\000\000\000@!\321@\000\000\000\000@;\323@\000\000\000\000\200\270\340@\000\000\000\000\200\001\307@\000\000\000\000\000\002\321@\000\000\000\000@\n\324@\000\000\000\000\200\273\317@\000\000\000\000\200\027\307@\000\000\000\000\000l\310@\000\000\000\000@\225\321@\000\000\000\000\000?\317@\000\000\000\000\200\217\302@\000\000\000\000\000%\330@\000\000\000\000\200\316\330@\000\000\000\000\000\341\305@\000\000\000\000\000*\271@\000\000\000\000@z\336@\000\000\000\000\000O\302@\000\000\000\000@\274\323@\000\000\000\000@T\323@\000\000\000\000@ \325@\000\000\000\000\200\"\330@\000\000\000\000@V\331@\000\000\000\000\200\342\331@\000\000\000\000\200\177\313@\000\000\000\000\2001\313@\000\000\000\000\000|\310@\000\000\000\000\200\314\317@\000\000\000\000\000\306\320@\000\000\000\000\200i\337@\000\000\000\000\340\000\340@\000\000\000\000\300\337\324@\000\000\000\000\200n\302@\000\000\000\000@\334\327@\000\000\000\000\000\261\303@\000\000\000\000@\371\346@\000\000\000\000\000\342\302@\000\000\000\000\000@\226@\000\000\000\000\000\r\264@\000\000\000\000\000\370\227@\000\000\000\000\000*\250@\000\000\000\000\000\000\370\177\000\000\000\000\000D\275@\000\000\000\000\000}\275@\000\000\000\000\000\037\275@\000\000\000\000\000\274\255@\000\000\000\000\000\233\272@\000\000\000\000\000T\304@\000\000\000\000\000X\240@\000\000\000\000\000\320\220@\000\000\000\000\000\024\250@\000\000\000\000\000\030\265@\000\000\000\000\0006\272@\000\000\000\000\0005\267@\000\000\000\000\000`\265@\000\000\000\000\000z\273@\000\000\000\000\000\341\267@\000\000\000\000\000\254\261@\000\000\000\000\200\221\303@\000\000\000\000\000\321\271@\000\000\000\000\000\230\216@\000\000\000\000\200P\300@\000\000\000\000\000\345\267@\000\000\000\000\000\326\260@\000\000\000\000\000j\256@\000\000\000\000\000\016\273@\000\000\000\000\000s\314@\000\000\000\000\000\327\272@\000\000\000\000\000t\275@\000\000\000\000\000\251\300@\000\000\000\000\000\035\275@\000\000\000\000@&\336@\000\000\000\000\300\237\334@\000\000\000\000\200Z\322@\000\000\000\000\000\315\272@\000\000\000\000\200\345\317@\000\000\000\000\000\021\272@\000\000\000\000\000[\263@\000\000\000\000\300M\334@\000\000\000\000\000\204\265@\000\000\000\000\300\026\322@\000\000\000\000\300\205\331@\000\000\000\000\000\204\270@\000\000\000\000\200.\302@\000\000\000\000\200@\316@\000\000\000\000\0000\254@\000\000\000\000\000\362\270@\000\000\000\000\200\021\325@\000\000\000\000\000\206\321@\000\000\000\000\000 \264@\000\000\000\000\000\351\270@\000\000\000\000\200P\312@\000\000\000\000\300\260\332@\000\000\000\000\300w\333@\000\000\000\000@\337\340@\000\000\000\000\000y\270@\000\000\000\000\200\332\334@\000\000\000\000\200\367\336@\000\000\000\000\2000\305@\000\000\000\000\000\330\263@\000\000\000\000\000W\273@\000\000\000\000\000\254\253@\000\000\000\000\200\221\340@\000\000\000\000\3401\344@\000\000\000\000\340`\346@\000\000\000\000\300K\333@\000\000\000\000\000\235\343@\000\000\000\000\300V\335@\000\000\000\000@5\336@\000\000\000\000\000\337\322@\000\000\000\000\000x\306@\000\000\000\000\000\316\333@\000\000\000\000\000y\271@\000\000\000\000\300@\336@\000\000\000\000\000\271\315@\000\000\000\000\000P\261@\000\000\000\000\000\025\302@\000\000\000\000\300)\322@\000\000\000\000\300\254\322@\000\000\000\000\000\251\341@\000\000\000\000\340\006\341@\000\000\000\000\000\232\247@\000\000\000\000\340\305\350@\000\000\000\000\000\335\276@\000\000\000\000\300/\331@\000\000\000\000\000\004\262@\000\000\000\000@\323\326@\000\000\000\000\000\006\314@\000\000\000\000@\225\320@\000\000\000\000\000\347\327@\000\000\000\000\200]\301@\000\000\000\000@\026\343@\000\000\000\000\200\220\320@\000\000\000\000 \024\340@\000\000\000\000\300I\327@\000\000\000\000\000\342\241@\000\000\000\000\200\361\321@\000\000\000\000\000\234\252@\000\000\000\000\000z\266@\000\000\000\000\000\240\312@\000\000\000\000\2001\333@\000\000\000\000\000\"\343@\000\000\000\000\000O\266@\000\000\000\000\000\027\300@\000\000\000\000\0004\245@\000\000\000\000\000\036\275@\000\000\000\000\200\341\311@\000\000\000\000\000\351\325@\000\000\000\000\200\240\320@\000\000\000\000\300\356\323@\000\000\000\000\200\313\305@\000\000\000\000\000=\310@\000\000\000\000\000l\233@\000\000\000\000@\224\323@\000\000\000\000\000\365\330@\000\000\000\000\200 \326@\000\000\000\000\300\236\325@\000\000\000\000\200#\311@\000\000\000\000\000\000\247@\000\000\000\000\200\274\305@\000\000\000\000@;\327@\000\000\000\000\300\314\337@\000\000\000\000\000Y\272@\000\000\000\000\000\013\267@\000\000\000\000\0006\253@\000\000\000\000\200\317\322@\000\000\000\000\240\275\344@\000\000\000\000\300\363\335@\000\000\000\000\300\226\334@\000\000\000\000\000\337\267@\000\000\000\000\200J\331@\000\000\000\000\000R\251@\000\000\000\000\200\027\316@\000\000\000\000\000\227\267@\000\000\000\000\300U\323@\000\000\000\000@\226\330@\000\000\000\000@X\324@\000\000\000\000\000\305\266@\000\000\000\000\000\243\340@\000\000\000\000\000E\300@\000\000\000\000\000\210\251@\000\000\000\000\000D\267@\000\000\000\000\000\363\272@\000\000\000\000\200\201\331@\000\000\000\000\000\005\326@\000\000\000\000\000\352\277@\000\000\000\000\000A\331@\000\000\000\000\000f\273@\000\000\000\000\000b\262@\000\000\000\000@\027\326@\000\000\000\000@\271\336@\000\000\000\000@\'\335@\000\000\000\000\200\t\300@\000\000\000\000\000R\330@\000\000\000\000\000A\327@\000\000\000\000\000\004\323@\000\000\000\000@\303\322@\000\000\000\000\200\361\320@\000\000\000\000\300\211\321@\000\000\000\000\300\273\330@\000\000\000\000\000\304\245@\000\000\000\000\000.\250@\000\000\000\000\000U\264@\000\000\000\000\000;\327@\000\000\000\000\200\251\311@\000\000\000\000\000Z\254@\000\000\000\000\200\243\312@\000\000\000\000\200\350\314@\000\000\000\000@\231\324@\000\000\000\000\3004\322@\000\000\000\000\200(\310@\000\000\000\000\000\246\311@\000\000\000\000\000\303\305@\000\000\000\000\000\366\257@\000\000\000\000\000\362\245@\000\000\000\000\000\375\272@\000\000\000\000\000\016\320@\000\000\000\000\200\351\316@\000\000\000\000\000\237\272@\000\000\000\000\000L\230@\000\000\000\000\000.\247@\000\000\000\000\000\004\314@\000\000\000\000\000\271\302@\000\000\000\000\200\252\321@\000\000\000\000\000\245\327@\000\000\000\000\000<\353@\000\000\000\000\000 \261@\000\000\000\000\000\036\264@\000\000\000\000\000!\327@\000\000\000\000\300B\335@\000\000\000\000\000L\241@\000\000\000\000\000\252\264@\000\000\000\000\2005\302@\000\000\000\000\000\036\303@\000\000\000\000\000T\247@\000\000\000\000\000\364\231@\000\000\000\000\000$\236@\000\000\000\000\200j\320@\000\000\000\000\200\323\325@\000\000\000\000\300\234\320@\000\000\000\000\000i\301@\000\000\000\000\000\212\266@\000\000\000\000\000\016\254@\000\000\000\000\200\373\305@\000\000\000\000\300\275\323@\000\000\000\000\340\203\341@\000\000\000\000\000=\325@\000\000\000\000\000`\232@\000\000\000\000\000u\307@\000\000\000\000\200}\307@\000\000\000\000\000\333\326@\000\000\000\000\000\307\260@\000\000\000\000\300\303\321@\000\000\000\000\000\002\315@\000\000\000\000\000\342\340@\000\000\000\000\200\027\311@\000\000\000\000\000.\251@\000\000\000\000\000G\274@\000\000\000\000@n\326@\000\000\000\000\000 \314@\000\000\000\000\300t\323@\000\000\000\000@\342\321@\000\000\000\000\000W\273@\000\000\000\000\200\256\303@\000\000\000\000\000\217\314@\000\000\000\000\000Y\276@\000\000\000\000\200\010\306@\000\000\000\000\000\313\307@\000\000\000\000\000k\271@\000\000\000\000\200A\330@\000\000\000\000\240^\346@\000\000\000\000\000\336\306@\000\000\000\000\200g\305@\000\000\000\000\000f\240@\000\000\000\000\000\006\325@\000\000\000\000\000\340\320@\000\000\000\000\000L\275@\000\000\000\000\300\333\330@\000\000\000\000\000\270\261@\000\000\000\000\000\306\250@\000\000\000\000\000t\242@"
      }
    }
  }
}
node {
  name: "tensors/component_6"
  op: "Const"
  device: "/device:CPU:0"
  attr {
    key: "_output_shapes"
    value {
      list {
        shape {
          dim {
            size: 301
          }
        }
      }
    }
  }
  attr {
    key: "dtype"
    value {
      type: DT_STRING
    }
  }
  attr {
    key: "value"
    value {
      tensor {
        dtype: DT_STRING
        tensor_shape {
          dim {
            size: 301
          }
        }
        string_val: "private"
        string_val: "proprietary"
        string_val: "private"
        string_val: "public"
        string_val: "private"
        string_val: "public"
        string_val: "public"
        string_val: "public"
        string_val: "public"
        string_val: "public"
        string_val: "public"
        string_val: "public"
        string_val: "public"
        string_val: "public"
        string_val: "public"
        string_val: "public"
        string_val: "public"
        string_val: "public"
        string_val: "public"
        string_val: "public"
        string_val: "public"
        string_val: "public"
        string_val: "public"
        string_val: "public"
        string_val: "public"
        string_val: "public"
        string_val: "public"
        string_val: "public"
        string_val: "public"
        string_val: "public"
        string_val: "public"
        string_val: "public"
        string_val: "public"
        string_val: "public"
        string_val: "public"
        string_val: "public"
        string_val: "public"
        string_val: "public"
        string_val: "public"
        string_val: "public"
        string_val: "public"
        string_val: "public"
        string_val: "public"
        string_val: "public"
        string_val: "public"
        string_val: "public"
        string_val: "public"
        string_val: "public"
        string_val: "public"
        string_val: "public"
        string_val: "public"
        string_val: "public"
        string_val: "public"
        string_val: "public"
        string_val: "public"
        string_val: "private"
        string_val: "public"
        string_val: "private"
        string_val: "public"
        string_val: "private"
        string_val: "private"
        string_val: "proprietary"
        string_val: "public"
        string_val: "private"
        string_val: "public"
        string_val: "private"
        string_val: "public"
        string_val: "public"
        string_val: "private"
        string_val: "private"
        string_val: "private"
        string_val: "private"
        string_val: "private"
        string_val: "private"
        string_val: "private"
        string_val: "private"
        string_val: "private"
        string_val: "private"
        string_val: "private"
        string_val: "private"
        string_val: "private"
        string_val: "private"
        string_val: "private"
        string_val: "private"
        string_val: "private"
        string_val: "private"
        string_val: "private"
        string_val: "private"
        string_val: "private"
        string_val: "private"
        string_val: "private"
        string_val: "public"
        string_val: "public"
        string_val: "private"
        string_val: "private"
        string_val: "public"
        string_val: "private"
        string_val: "private"
        string_val: "public"
        string_val: "private"
        string_val: "public"
        string_val: "private"
        string_val: "public"
        string_val: "private"
        string_val: "public"
        string_val: "private"
        string_val: "private"
        string_val: "public"
        string_val: "private"
        string_val: "private"
        string_val: "private"
        string_val: "private"
        string_val: "public"
        string_val: "public"
        string_val: "public"
        string_val: "private"
        string_val: "public"
        string_val: "public"
        string_val: "private"
        string_val: "private"
        string_val: "private"
        string_val: "private"
        string_val: "public"
        string_val: "public"
        string_val: "public"
        string_val: "public"
        string_val: "public"
        string_val: "public"
        string_val: "public"
        string_val: "public"
        string_val: "private"
        string_val: "public"
        string_val: "private"
        string_val: "private"
        string_val: "private"
        string_val: "private"
        string_val: "private"
        string_val: "public"
        string_val: "public"
        string_val: "public"
        string_val: "public"
        string_val: "private"
        string_val: "public"
        string_val: "private"
        string_val: "public"
        string_val: "public"
        string_val: "public"
        string_val: "private"
        string_val: "public"
        string_val: "public"
        string_val: "private"
        string_val: "public"
        string_val: "public"
        string_val: "public"
        string_val: "public"
        string_val: "private"
        string_val: "public"
        string_val: "private"
        string_val: "private"
        string_val: "public"
        string_val: "public"
        string_val: "public"
        string_val: "private"
        string_val: "private"
        string_val: "private"
        string_val: "private"
        string_val: "private"
        string_val: "public"
        string_val: "public"
        string_val: "public"
        string_val: "public"
        string_val: "private"
        string_val: "public"
        string_val: "public"
        string_val: "public"
        string_val: "public"
        string_val: "public"
        string_val: "public"
        string_val: "private"
        string_val: "private"
        string_val: "public"
        string_val: "public"
        string_val: "private"
        string_val: "private"
        string_val: "private"
        string_val: "public"
        string_val: "public"
        string_val: "public"
        string_val: "public"
        string_val: "private"
        string_val: "public"
        string_val: "private"
        string_val: "private"
        string_val: "private"
        string_val: "public"
        string_val: "public"
        string_val: "public"
        string_val: "public"
        string_val: "public"
        string_val: "private"
        string_val: "private"
        string_val: "private"
        string_val: "private"
        string_val: "public"
        string_val: "public"
        string_val: "public"
        string_val: "public"
        string_val: "private"
        string_val: "private"
        string_val: "public"
        string_val: "public"
        string_val: "public"
        string_val: "public"
        string_val: "public"
        string_val: "public"
        string_val: "public"
        string_val: "public"
        string_val: "public"
        string_val: "public"
        string_val: "public"
        string_val: "private"
        string_val: "private"
        string_val: "private"
        string_val: "public"
        string_val: "public"
        string_val: "private"
        string_val: "public"
        string_val: "public"
        string_val: "public"
        string_val: "public"
        string_val: "public"
        string_val: "public"
        string_val: "public"
        string_val: "private"
        string_val: "private"
        string_val: "public"
        string_val: "private"
        string_val: "public"
        string_val: "public"
        string_val: "private"
        string_val: "private"
        string_val: "public"
        string_val: "public"
        string_val: "public"
        string_val: "public"
        string_val: "public"
        string_val: "private"
        string_val: "private"
        string_val: "public"
        string_val: "public"
        string_val: "private"
        string_val: "private"
        string_val: "public"
        string_val: "public"
        string_val: "private"
        string_val: "private"
        string_val: "private"
        string_val: "public"
        string_val: "public"
        string_val: "public"
        string_val: "private"
        string_val: "private"
        string_val: "private"
        string_val: "public"
        string_val: "public"
        string_val: "public"
        string_val: "public"
        string_val: "private"
        string_val: "public"
        string_val: "public"
        string_val: "public"
        string_val: "private"
        string_val: "public"
        string_val: "public"
        string_val: "public"
        string_val: "public"
        string_val: "private"
        string_val: "public"
        string_val: "public"
        string_val: "public"
        string_val: "public"
        string_val: "public"
        string_val: "public"
        string_val: "public"
        string_val: "public"
        string_val: "public"
        string_val: "public"
        string_val: "public"
        string_val: "public"
        string_val: "public"
        string_val: "public"
        string_val: "public"
        string_val: "public"
        string_val: "private"
        string_val: "public"
        string_val: "public"
        string_val: "public"
        string_val: "public"
        string_val: "private"
        string_val: "private"
        string_val: "private"
      }
    }
  }
}
node {
  name: "tensors/component_7"
  op: "Const"
  device: "/device:CPU:0"
  attr {
    key: "_output_shapes"
    value {
      list {
        shape {
          dim {
            size: 301
          }
        }
      }
    }
  }
  attr {
    key: "dtype"
    value {
      type: DT_INT64
    }
  }
  attr {
    key: "value"
    value {
      tensor {
        dtype: DT_INT64
        tensor_shape {
          dim {
            size: 301
          }
        }
        tensor_content: "\376\377\377\377\377\377\377\377\376\377\377\377\377\377\377\377\376\377\377\377\377\377\377\377\377\377\377\377\377\377\377\377\377\377\377\377\377\377\377\377\377\377\377\377\377\377\377\377\377\377\377\377\377\377\377\377\377\377\377\377\377\377\377\377\377\377\377\377\377\377\377\377\377\377\377\377\377\377\377\377\377\377\377\377\377\377\377\377\377\377\377\377\377\377\377\377\377\377\377\377\377\377\377\377\377\377\377\377\377\377\377\377\377\377\377\377\377\377\377\377\377\377\377\377\377\377\377\377\377\377\377\377\377\377\377\377\377\377\377\377\377\377\377\377\377\377\377\377\377\377\377\377\377\377\377\377\377\377\377\377\377\377\377\377\377\377\377\377\377\377\377\377\377\377\377\377\377\377\377\377\377\377\377\377\377\377\377\377\377\377\377\377\377\377\377\377\377\377\377\377\377\377\377\377\377\377\377\377\377\377\377\377\377\377\377\377\377\377\377\377\377\377\377\377\377\377\377\377\377\377\377\377\377\377\377\377\377\377\377\377\377\377\377\377\377\377\377\377\377\377\377\377\377\377\377\377\377\377\377\377\377\377\377\377\377\377\377\377\377\377\377\377\377\377\377\377\377\377\377\377\377\377\377\377\377\377\377\377\377\377\377\377\377\377\377\377\377\377\377\377\377\377\377\377\377\377\377\377\377\377\377\377\377\377\377\377\377\377\377\377\377\377\377\377\377\377\377\377\377\377\377\377\377\377\377\377\377\377\377\377\377\377\377\377\377\377\377\377\377\377\377\377\377\377\377\377\377\377\377\377\377\377\377\377\377\377\377\377\377\377\377\377\377\377\377\377\377\377\377\377\377\377\377\377\377\377\377\377\377\377\377\377\377\377\377\377\377\377\377\377\377\377\377\377\377\377\377\377\377\377\377\377\377\377\377\377\377\377\377\377\377\377\377\377\377\377\377\377\377\377\377\377\377\377\377\377\377\377\377\377\377\377\377\377\377\377\377\377\377\377\377\377\377\377\377\377\377\377\377\377\377\377\377\377\377\377\377\377\377\377\377\377\377\377\377\377\377\377\377\377\377\377\377\377\377\377\377\377\377\377\377\377\377\377\377\377\377\377\377\377\377\377\377\377\377\377\377\377\377\377\377\377\377\377\377\377\377\377\377\377\377\377\377\377\377\377\377\377\377\377\377\377\377\377\377\377\377\377\377\377\377\377\377\377\377\377\377\377\377\377\377\377\377\377\377\377\377\377\377\377\377\377\377\377\377\377\377\377\001\000\000\000\000\000\000\000\002\000\000\000\000\000\000\000\003\000\000\000\000\000\000\000\003\000\000\000\000\000\000\000\005\000\000\000\000\000\000\000\005\000\000\000\000\000\000\000\005\000\000\000\000\000\000\000\010\000\000\000\000\000\000\000\t\000\000\000\000\000\000\000\n\000\000\000\000\000\000\000\013\000\000\000\000\000\000\000\013\000\000\000\000\000\000\000\013\000\000\000\000\000\000\000\016\000\000\000\000\000\000\000\016\000\000\000\000\000\000\000\016\000\000\000\000\000\000\000\016\000\000\000\000\000\000\000\022\000\000\000\000\000\000\000\022\000\000\000\000\000\000\000\024\000\000\000\000\000\000\000\025\000\000\000\000\000\000\000\025\000\000\000\000\000\000\000\025\000\000\000\000\000\000\000\025\000\000\000\000\000\000\000\031\000\000\000\000\000\000\000\031\000\000\000\000\000\000\000\033\000\000\000\000\000\000\000\034\000\000\000\000\000\000\000\035\000\000\000\000\000\000\000\036\000\000\000\000\000\000\000\036\000\000\000\000\000\000\000 \000\000\000\000\000\000\000 \000\000\000\000\000\000\000\"\000\000\000\000\000\000\000\"\000\000\000\000\000\000\000\"\000\000\000\000\000\000\000%\000\000\000\000\000\000\000%\000\000\000\000\000\000\000%\000\000\000\000\000\000\000(\000\000\000\000\000\000\000(\000\000\000\000\000\000\000*\000\000\000\000\000\000\000*\000\000\000\000\000\000\000*\000\000\000\000\000\000\000*\000\000\000\000\000\000\000.\000\000\000\000\000\000\000.\000\000\000\000\000\000\000.\000\000\000\000\000\000\000.\000\000\000\000\000\000\000.\000\000\000\000\000\000\000.\000\000\000\000\000\000\0004\000\000\000\000\000\000\0004\000\000\000\000\000\000\0006\000\000\000\000\000\000\0006\000\000\000\000\000\000\0008\000\000\000\000\000\000\0008\000\000\000\000\000\000\0008\000\000\000\000\000\000\0008\000\000\000\000\000\000\0008\000\000\000\000\000\000\000=\000\000\000\000\000\000\000=\000\000\000\000\000\000\000=\000\000\000\000\000\000\000=\000\000\000\000\000\000\000=\000\000\000\000\000\000\000=\000\000\000\000\000\000\000C\000\000\000\000\000\000\000D\000\000\000\000\000\000\000E\000\000\000\000\000\000\000E\000\000\000\000\000\000\000E\000\000\000\000\000\000\000E\000\000\000\000\000\000\000E\000\000\000\000\000\000\000E\000\000\000\000\000\000\000K\000\000\000\000\000\000\000K\000\000\000\000\000\000\000K\000\000\000\000\000\000\000N\000\000\000\000\000\000\000N\000\000\000\000\000\000\000N\000\000\000\000\000\000\000Q\000\000\000\000\000\000\000Q\000\000\000\000\000\000\000Q\000\000\000\000\000\000\000Q\000\000\000\000\000\000\000Q\000\000\000\000\000\000\000Q\000\000\000\000\000\000\000W\000\000\000\000\000\000\000W\000\000\000\000\000\000\000W\000\000\000\000\000\000\000Z\000\000\000\000\000\000\000Z\000\000\000\000\000\000\000Z\000\000\000\000\000\000\000Z\000\000\000\000\000\000\000^\000\000\000\000\000\000\000^\000\000\000\000\000\000\000^\000\000\000\000\000\000\000a\000\000\000\000\000\000\000a\000\000\000\000\000\000\000a\000\000\000\000\000\000\000a\000\000\000\000\000\000\000a\000\000\000\000\000\000\000a\000\000\000\000\000\000\000g\000\000\000\000\000\000\000g\000\000\000\000\000\000\000g\000\000\000\000\000\000\000g\000\000\000\000\000\000\000g\000\000\000\000\000\000\000g\000\000\000\000\000\000\000g\000\000\000\000\000\000\000n\000\000\000\000\000\000\000n\000\000\000\000\000\000\000n\000\000\000\000\000\000\000n\000\000\000\000\000\000\000n\000\000\000\000\000\000\000s\000\000\000\000\000\000\000s\000\000\000\000\000\000\000s\000\000\000\000\000\000\000s\000\000\000\000\000\000\000s\000\000\000\000\000\000\000x\000\000\000\000\000\000\000x\000\000\000\000\000\000\000x\000\000\000\000\000\000\000x\000\000\000\000\000\000\000|\000\000\000\000\000\000\000|\000\000\000\000\000\000\000|\000\000\000\000\000\000\000|\000\000\000\000\000\000\000|\000\000\000\000\000\000\000|\000\000\000\000\000\000\000|\000\000\000\000\000\000\000|\000\000\000\000\000\000\000\204\000\000\000\000\000\000\000\205\000\000\000\000\000\000\000\205\000\000\000\000\000\000\000\205\000\000\000\000\000\000\000\205\000\000\000\000\000\000\000\205\000\000\000\000\000\000\000\205\000\000\000\000\000\000\000\205\000\000\000\000\000\000\000\214\000\000\000\000\000\000\000\214\000\000\000\000\000\000\000\214\000\000\000\000\000\000\000\214\000\000\000\000\000\000\000\214\000\000\000\000\000\000\000\221\000\000\000\000\000\000\000\221\000\000\000\000\000\000\000\221\000\000\000\000\000\000\000\221\000\000\000\000\000\000\000\221\000\000\000\000\000\000\000\221\000\000\000\000\000\000\000\227\000\000\000\000\000\000\000\227\000\000\000\000\000\000\000\227\000\000\000\000\000\000\000\227\000\000\000\000\000\000\000\227\000\000\000\000\000\000\000\234\000\000\000\000\000\000\000\234\000\000\000\000\000\000\000\234\000\000\000\000\000\000\000\237\000\000\000\000\000\000\000\237\000\000\000\000\000\000\000\237\000\000\000\000\000\000\000\237\000\000\000\000\000\000\000\237\000\000\000\000\000\000\000\237\000\000\000\000\000\000\000\245\000\000\000\000\000\000\000\245\000\000\000\000\000\000\000\245\000\000\000\000\000\000\000\245\000\000\000\000\000\000\000\245\000\000\000\000\000\000\000\245\000\000\000\000\000\000\000\253\000\000\000\000\000\000\000\253\000\000\000\000\000\000\000\253\000\000\000\000\000\000\000\253\000\000\000\000\000\000\000\253\000\000\000\000\000\000\000\260\000\000\000\000\000\000\000\260\000\000\000\000\000\000\000\260\000\000\000\000\000\000\000\260\000\000\000\000\000\000\000\260\000\000\000\000\000\000\000\265\000\000\000\000\000\000\000\265\000\000\000\000\000\000\000\265\000\000\000\000\000\000\000\265\000\000\000\000\000\000\000\265\000\000\000\000\000\000\000\265\000\000\000\000\000\000\000\273\000\000\000\000\000\000\000\273\000\000\000\000\000\000\000\273\000\000\000\000\000\000\000\273\000\000\000\000\000\000\000\273\000\000\000\000\000\000\000\300\000\000\000\000\000\000\000\300\000\000\000\000\000\000\000\300\000\000\000\000\000\000\000\300\000\000\000\000\000\000\000\300\000\000\000\000\000\000\000\300\000\000\000\000\000\000\000\306\000\000\000\000\000\000\000\306\000\000\000\000\000\000\000\306\000\000\000\000\000\000\000\306\000\000\000\000\000\000\000\312\000\000\000\000\000\000\000\312\000\000\000\000\000\000\000\312\000\000\000\000\000\000\000\312\000\000\000\000\000\000\000\312\000\000\000\000\000\000\000\317\000\000\000\000\000\000\000\317\000\000\000\000\000\000\000\317\000\000\000\000\000\000\000\317\000\000\000\000\000\000\000\317\000\000\000\000\000\000\000\317\000\000\000\000\000\000\000\317\000\000\000\000\000\000\000\317\000\000\000\000\000\000\000\317\000\000\000\000\000\000\000\330\000\000\000\000\000\000\000\330\000\000\000\000\000\000\000\330\000\000\000\000\000\000\000\330\000\000\000\000\000\000\000\330\000\000\000\000\000\000\000\330\000\000\000\000\000\000\000\330\000\000\000\000\000\000\000\337\000\000\000\000\000\000\000\337\000\000\000\000\000\000\000\337\000\000\000\000\000\000\000\337\000\000\000\000\000\000\000\337\000\000\000\000\000\000\000\337\000\000\000\000\000\000\000\337\000\000\000\000\000\000\000\337\000\000\000\000\000\000\000"
      }
    }
  }
}
node {
  name: "tensors/component_8"
  op: "Const"
  device: "/device:CPU:0"
  attr {
    key: "_output_shapes"
    value {
      list {
        shape {
          dim {
            size: 301
          }
        }
      }
    }
  }
  attr {
    key: "dtype"
    value {
      type: DT_DOUBLE
    }
  }
  attr {
    key: "value"
    value {
      tensor {
        dtype: DT_DOUBLE
        tensor_shape {
          dim {
            size: 301
          }
        }
        tensor_content: "B\316\373\3778\371:@w\276\237\032/i1@(\016\240\337\367\0137@\374\306\327\236Y\356:@\352\010\340f\361\342>@\036P6\345\nS?@\225\3223\275\304d;@/\244\303C\030;B@\016\273\357\030\036?>@\3373\022\241\021NA@\252\n\r\304\262\331?@_\2652\341\227\032@@\255Q\017\321\350b@@\017\013\265\246y[D@\275p\347\302H\'=@c\356ZB>\274@@\003\006I\237V\r@@\007\232\317\271\333\255:@G\257\006(\r\271<@\355\267v\242$\"@@Va3\300\005\017A@\306\341\314\257\346\034B@\323Mb\020X\355D@\371\017\351\267\257\373A@W=`\0362_B@\014\005l\007#Z?@p\265N\\\216\203C@\rq\254\213\333\314B@\226\264\342\033\n\323@@u\006F^\326PD@\034\316\374j\016\340D@\253\\\250\374k\023A@\000W\262c#nE@o\236\352\220\233\265D@\016\333\026e6\250;@\206\347\245bc\344B@\323Mb\020X\355D@O\351`\375\237\303>@\222#\235\201\221\261B@\216\220\201<\273\374>@\317\240\241\177\202]A@,)w\237\343\017@@\207n\366\007\312\001>@t{Ic\264nD@\331\227l<\330\356B@\344\331\345[\0376E@\026\245\204`U[A@\342\350*\335]\367D@\345E&\340\327h>@\203\206\376\t.\336D@\323Mb\020X\355D@\274\351\226\035\342\005C@\237v\370k\262\272C@\036T\342:\306%=@6\345\n\357r\235C@\272\370\333\236 #C@\207k\265\207\275\000:@\214\333h\000o\301=@\340-\220\240\370\033B@\210\330`\341$5@@\016\273\357\030\036\027?@bK\217\246z\n7@\326\307C\337\335b:@\344\204\t\243Y\035C@{\204\232!U0<@Q\023}>\312\254?@\352u\213\300XS?@\355\267v\242$\"@@\032\371\274\342\251\275@@\301\034=~oW=@\363\220)\037\202\026<@\000\000\000\000\000\000N@\000\000\000\000\000\200K@\000\000\000\000\000\000E@\000\000\000\000\000\000I@\000\000\000\000\000\200G@\000\000\000\000\000\000H@\000\000\000\000\000\000M@\000\000\000\000\000\200G@\000\000\000\000\000\200D@\000\000\000\000\000\200I@\000\000\000\000\000\200E@\000\000\000\000\000\200F@\000\000\000\000\000\000I@\000\000\000\000\000\200B@\000\000\000\000\000\200D@\000\000\000\000\000\000F@\000\000\000\000\000\000G@\000\000\000\000\000\200D@\000\000\000\000\000\200G@\000\000\000\000\000\000A@\000\000\000\000\000\000.@\000\000\000\000\000\0007@\000\000\000\000\000\200@@\000\000\000\000\000\000E@\000\000\000\000\000\000<@\000\000\000\000\000\000D@\000\000\000\000\000\000>@\000\000\000\000\000\0009@\000\000\000\000\000\000A@\000\000\000\000\000\200D@\000\000\000\000\000\000G@\000\000\000\000\000\0005@\000\000\000\000\000\200A@\000\000\000\000\000\000.@\000\000\000\000\000\200G@\000\000\000\000\000\200I@\000\000\000\000\000\000 @\000\000\000\000\000\000B@\000\000\000\000\000\000H@\000\000\000\000\000\000?@\000\000\000\000\000\000A@\000\000\000\000\000\000\030@\000\000\000\000\000\000\034@\000\000\000\000\000\0004@\000\000\000\000\000\200N@\000\000\000\000\000\000\"@\000\000\000\000\000\0000@\000\000\000\000\000\200@@\000\000\000\000\000\000C@\000\000\000\000\000\000F@\000\000\000\000\000\200I@\000\000\000\000\000\000\"@\000\000\000\000\000\000,@\000\000\000\000\000\000\"@\000\000\000\000\000\000*@\000\000\000\000\000\000\034@\000\000\000\000\000\0000@\000\000\000\000\000\0004@\000\000\000\000\000\200@@\000\000\000\000\000\200E@\000\000\000\000\000\0004@\000\000\000\000\000\0008@\000\000\000\000\000\000C@\000\000\000\000\000\000H@\000\000\000\000\000\000O@\315\221\225_\006\341G@\000\000\000\000\000\000\034@\034x\265\334\231\347H@\000\000\000\000\000\000*@\000\000\000\000\000\0007@\000\000\000\000\000\000D@\000\000\000\000\000\200D@\000\000\000\000\000\000G@\327\210`\034\\\336G@\000\000\000\000\000\0005@\000\000\000\000\000\200A@\000\000\000\000\000\200J@\000\000\000\000\000\000$@\000\000\000\000\000\000A@\000\000\000\000\000\200A@\000\000\000\000\000\000\024@\000\000\000\000\000\0002@\000\000\000\000\000\000;@\000\000\000\000\000\200D@\000\000\000\000\000\000O@p\315\035\375/\323G@\000\000\000\000\000\000.@\000\000\000\000\000\000D@\000\000\000\000\000\000K@\000\000\000\000\000\000(@\000\000\000\000\000\0000@\000\000\000\000\000\000H@\000\000\000\000\000\200K@\000\000\000\000\000\000G@\000\000\000\000\000\200I@\000\000\000\000\000\000K@\000\000\000\000\000\000*@\000\000\000\000\000\000*@\000\000\000\000\000\000<@\000\000\000\000\000\000H@\000\000\000\000\000\200Q@-\010\345}\034\301F@\000\000\000\000\000\000\034@\000\000\000\000\000\000 @\000\000\000\000\000\0000@\000\000\000\000\000\200@@\000\000\000\000\000\000L@\000\000\000\000\000\000O@\000\000\000\000\000\000P@\000\000\000\000\000\000&@\000\000\000\000\000\000;@\000\000\000\000\000\000G@\000\000\000\000\000\000I@\000\000\000\000\000\300P@\000\000\000\000\000\000>@\000\000\000\000\000\000?@\000\000\000\000\000\000A@\000\000\000\000\000\200B@\000\000\000\000\000\200K@\000\000\000\000\000\200@@\000\000\000\000\000\000K@\000\000\000\000\000\200M@\000\000\000\000\000@P@\000\000\000\000\000\000.@\000\000\000\000\000\0000@\000\000\000\000\000\0005@\000\000\000\000\000\000<@\000\000\000\000\000\000=@\000\000\000\000\000\000G@\000\000\000\000\000\300S@\372&M\203\242\247I@\000\000\000\000\000\200N@\000\000\000\000\000\000,@\000\000\000\000\000\0000@\000\000\000\000\000\000:@\000\000\000\000\000\000<@\000\000\000\000\000\200D@\000\000\000\000\000\300P@\3127\333\334\230\222E@\000\000\000\000\000\0009@\000\000\000\000\000\000@@\000\000\000\000\000\200A@\000\000\000\000\000\200B@\000\000\000\000\000\200C@\000\000\000\000\000\0006@\000\000\000\000\000\0008@\000\000\000\000\000\000<@\000\000\000\000\000\000?@\000\000\000\000\000\000A@\000\000\000\000\000@T@\274[Y\242\263JD@u\006F^\326\230F@\245\203\365\177\0161E@z\307):\222\237F@\204\325X\302\332XF@\331!\376aK\341F@\363\216St$\223D@\203n/i\214zD@\237v\370k\2622E@\247\256|\226\347aD@\245,C\034\353VC@Qk\232w\234\266E@\253\351z\242\353\266E@C\004\034B\225\020E@A\267\2274F\237E@@\277\357\337\274xF@\3579\260\034!\201D@\316\246#\200\233!A@\t\375L\275n)=@\333\304\311\375\016\021C@\365\330\226\001gUE@\246\320y\215]\252B@C\001\333\301\210\201D@\306\213\205!r\352D@p\261\242\006\323\034D@\004\307e\334\324\260D@f\301\304\037E\241D@\331\227l<\330\nC@-[\353\213\204\002F@\321\226s)\256\266D@A\232\261h:\303D@QO\037\201?<B@\020]P\3372\207@@\357\253r\241\362eC@\245\2066\000\033|C@\204*5{\240\345C@\267\263\257<H7@@\320\265/\240\027JC@\036\334\235\265\333\372D@\227\002\322\376\007\364D@\310\357m\372\263{E@*\035\254\377s\276E@\207l ]l.C@\341\361\355]\203r@@\342W\254\341\"\tF@=\017\356\316\332\r?@\363\215\350\236u\227C@F%u\002\232\356C@`\001L\0318\344<@Mg\'\203\243\026E@\271p $\013LE@\033\330*\301\342DC@[\323\274\343\024-D@\324|\225|\354\004A@\264\"j\242\317\243E@K\"\373 \313FC@\310^\357\376x\257@@v\340\234\021\245\221D@\274t\223\030\004\372C@\353T\371\236\221\344B@\370\031\027\016\204DA@\210ht\007\261/E@]\304wb\3269C@V\202\305\341\314{E@\264\004\031\001\025\206@@\375\300U\236@lC@\245e\244\336SY>@\020#\204G\033\347E@\353\377\034\346\313\277C@0du\253\347\200C@ \267_>Y\035E@d${\204\232\201>@Eh\004\033\327S<@\354\337\365\231\263\016>@\030\010\002d\3502E@~\377\346\305\211/8@\350Ko\177.\256D@c\270:\000\342&E@\261\302-\037IqE@\220h\002E,\226<@"
      }
    }
  }
}
node {
  name: "tensors/component_9"
  op: "Const"
  device: "/device:CPU:0"
  attr {
    key: "_output_shapes"
    value {
      list {
        shape {
          dim {
            size: 301
          }
        }
      }
    }
  }
  attr {
    key: "dtype"
    value {
      type: DT_INT64
    }
  }
  attr {
    key: "value"
    value {
      tensor {
        dtype: DT_INT64
        tensor_shape {
          dim {
            size: 301
          }
        }
        tensor_content: "H\003\000\000\000\000\000\000H\003\000\000\000\000\000\000H\003\000\000\000\000\000\000\026\003\000\000\000\000\000\000R\003\000\000\000\000\000\000\\\003\000\000\000\000\000\000 \003\000\000\000\000\000\000%\003\000\000\000\000\000\000\024\003\000\000\000\000\000\000\230\003\000\000\000\000\000\000f\003\000\000\000\000\000\000R\003\000\000\000\000\000\000k\003\000\000\000\000\000\000\230\003\000\000\000\000\000\000H\003\000\000\000\000\000\000f\003\000\000\000\000\000\000\313\002\000\000\000\000\000\000z\003\000\000\000\000\000\000z\003\000\000\000\000\000\000R\003\000\000\000\000\000\000\216\003\000\000\000\000\000\000\266\003\000\000\000\000\000\000\242\003\000\000\000\000\000\000\254\003\000\000\000\000\000\000\216\003\000\000\000\000\000\000*\003\000\000\000\000\000\000\230\003\000\000\000\000\000\000\223\003\000\000\000\000\000\000\242\003\000\000\000\000\000\000\006\004\000\000\000\000\000\000\254\003\000\000\000\000\000\000\242\003\000\000\000\000\000\000\230\003\000\000\000\000\000\000\266\003\000\000\000\000\000\000\026\003\000\000\000\000\000\000\266\003\000\000\000\000\000\000\324\003\000\000\000\000\000\000\242\003\000\000\000\000\000\000\216\003\000\000\000\000\000\000z\003\000\000\000\000\000\000\242\003\000\000\000\000\000\000\204\003\000\000\000\000\000\000\\\003\000\000\000\000\000\000\254\003\000\000\000\000\000\000\230\003\000\000\000\000\000\000\254\003\000\000\000\000\000\000\242\003\000\000\000\000\000\000\216\003\000\000\000\000\000\000z\003\000\000\000\000\000\000\350\003\000\000\000\000\000\000\266\003\000\000\000\000\000\000\204\003\000\000\000\000\000\000\300\003\000\000\000\000\000\000R\003\000\000\000\000\000\000\242\003\000\000\000\000\000\000\266\003\000\000\000\000\000\000R\003\000\000\000\000\000\000\026\003\000\000\000\000\000\000\242\003\000\000\000\000\000\000\315\003\000\000\000\000\000\0004\003\000\000\000\000\000\000\204\003\000\000\000\000\000\000*\003\000\000\000\000\000\000\230\003\000\000\000\000\000\000\356\002\000\000\000\000\000\000\230\003\000\000\000\000\000\000R\003\000\000\000\000\000\0004\003\000\000\000\000\000\000\242\003\000\000\000\000\000\000p\003\000\000\000\000\000\000\\\003\000\000\000\000\000\000x\005\000\000\000\000\000\000\226\005\000\000\000\000\000\000\252\005\000\000\000\000\000\000\214\005\000\000\000\000\000\000d\005\000\000\000\000\000\000\226\005\000\000\000\000\000\000\264\005\000\000\000\000\000\000d\005\000\000\000\000\000\000d\005\000\000\000\000\000\000\346\005\000\000\000\000\000\000x\005\000\000\000\000\000\000\214\005\000\000\000\000\000\000F\005\000\000\000\000\000\000\202\005\000\000\000\000\000\000Z\005\000\000\000\000\000\0002\005\000\000\000\000\000\000\214\005\000\000\000\000\000\000x\005\000\000\000\000\000\000F\005\000\000\000\000\000\000(\005\000\000\000\000\000\000\210\004\000\000\000\000\000\000\024\005\000\000\000\000\000\000\000\005\000\000\000\000\000\000\n\005\000\000\000\000\000\000\330\004\000\000\000\000\000\000d\005\000\000\000\000\000\000\330\004\000\000\000\000\000\000\036\005\000\000\000\000\000\000Z\005\000\000\000\000\000\000\246\004\000\000\000\000\000\000\342\004\000\000\000\000\000\000\342\004\000\000\000\000\000\000\354\004\000\000\000\000\000\000(\005\000\000\000\000\000\000\366\004\000\000\000\000\000\000\342\004\000\000\000\000\000\000t\004\000\000\000\000\000\000\304\004\000\000\000\000\000\000\000\005\000\000\000\000\000\000\342\004\000\000\000\000\000\0002\005\000\000\000\000\000\000$\004\000\000\000\000\000\000t\004\000\000\000\000\000\000\234\004\000\000\000\000\000\000\000\005\000\000\000\000\000\000\032\004\000\000\000\000\000\000\322\004\000\000\000\000\000\000\272\004\000\000\000\000\000\000\316\004\000\000\000\000\000\000\304\004\000\000\000\000\000\000V\004\000\000\000\000\000\000\000\005\000\000\000\000\000\000B\004\000\000\000\000\000\000\210\004\000\000\000\000\000\000t\004\000\000\000\000\000\000t\004\000\000\000\000\000\0008\004\000\000\000\000\000\000`\004\000\000\000\000\000\000j\004\000\000\000\000\000\000\234\004\000\000\000\000\000\000\272\004\000\000\000\000\000\000\304\004\000\000\000\000\000\000\210\004\000\000\000\000\000\000B\004\000\000\000\000\000\000\260\004\000\000\000\000\000\000\222\004\000\000\000\000\000\000~\004\000\000\000\000\000\000\246\004\000\000\000\000\000\000V\004\000\000\000\000\000\000\234\004\000\000\000\000\000\000\354\004\000\000\000\000\000\000.\004\000\000\000\000\000\000~\004\000\000\000\000\000\000L\004\000\000\000\000\000\000\342\004\000\000\000\000\000\000j\004\000\000\000\000\000\000`\004\000\000\000\000\000\000j\004\000\000\000\000\000\000\374\003\000\000\000\000\000\000.\004\000\000\000\000\000\000\336\003\000\000\000\000\000\000$\004\000\000\000\000\000\000V\004\000\000\000\000\000\000\222\004\000\000\000\000\000\000V\004\000\000\000\000\000\000B\004\000\000\000\000\000\000`\004\000\000\000\000\000\000V\004\000\000\000\000\000\000\316\004\000\000\000\000\000\000.\004\000\000\000\000\000\000$\004\000\000\000\000\000\000L\004\000\000\000\000\000\000\020\004\000\000\000\000\000\000B\004\000\000\000\000\000\000`\004\000\000\000\000\000\0008\004\000\000\000\000\000\000$\004\000\000\000\000\000\000~\004\000\000\000\000\000\000.\004\000\000\000\000\000\000L\004\000\000\000\000\000\000t\004\000\000\000\000\000\000.\004\000\000\000\000\000\000\324\003\000\000\000\000\000\000`\004\000\000\000\000\000\000$\004\000\000\000\000\000\000\020\004\000\000\000\000\000\000\336\003\000\000\000\000\000\000j\004\000\000\000\000\000\000\006\004\000\000\000\000\000\000\032\004\000\000\000\000\000\000\324\003\000\000\000\000\000\000\006\004\000\000\000\000\000\000\020\004\000\000\000\000\000\000\006\004\000\000\000\000\000\000\032\004\000\000\000\000\000\000\374\003\000\000\000\000\000\000\324\003\000\000\000\000\000\000\032\004\000\000\000\000\000\000\032\004\000\000\000\000\000\000\374\003\000\000\000\000\000\000\020\004\000\000\000\000\000\000\006\004\000\000\000\000\000\000\037\004\000\000\000\000\000\000\254\003\000\000\000\000\000\000\374\003\000\000\000\000\000\000\336\003\000\000\000\000\000\0001\004\000\000\000\000\000\000\312\003\000\000\000\000\000\000\006\004\000\000\000\000\000\0008\004\000\000\000\000\000\000.\004\000\000\000\000\000\000.\004\000\000\000\000\000\000\362\003\000\000\000\000\000\000\362\003\000\000\000\000\000\000\216\003\000\000\000\000\000\000\006\004\000\000\000\000\000\000\006\004\000\000\000\000\000\000L\004\000\000\000\000\000\000\324\003\000\000\000\000\000\000.\004\000\000\000\000\000\000\350\003\000\000\000\000\000\000V\004\000\000\000\000\000\000\242\003\000\000\000\000\000\000$\004\000\000\000\000\000\000\266\003\000\000\000\000\000\000\350\003\000\000\000\000\000\000t\004\000\000\000\000\000\000\336\003\000\000\000\000\000\000\336\003\000\000\000\000\000\000\312\003\000\000\000\000\000\000\336\003\000\000\000\000\000\000\362\003\000\000\000\000\000\000\336\003\000\000\000\000\000\000\362\003\000\000\000\000\000\000$\004\000\000\000\000\000\000.\004\000\000\000\000\000\000\336\003\000\000\000\000\000\000\312\003\000\000\000\000\000\000\266\003\000\000\000\000\000\000\305\003\000\000\000\000\000\000\312\003\000\000\000\000\000\000`\004\000\000\000\000\000\000\266\003\000\000\000\000\000\000\242\003\000\000\000\000\000\000\242\004\000\000\000\000\000\000\312\003\000\000\000\000\000\000\350\003\000\000\000\000\000\000\\\003\000\000\000\000\000\000\\\003\000\000\000\000\000\000\204\003\000\000\000\000\000\000\336\003\000\000\000\000\000\000\242\003\000\000\000\000\000\000\336\003\000\000\000\000\000\000\324\003\000\000\000\000\000\0008\004\000\000\000\000\000\000\254\003\000\000\000\000\000\000\230\003\000\000\000\000\000\000\266\003\000\000\000\000\000\000\374\003\000\000\000\000\000\000\374\003\000\000\000\000\000\000\216\003\000\000\000\000\000\000\266\003\000\000\000\000\000\000\300\003\000\000\000\000\000\000\336\003\000\000\000\000\000\000\273\003\000\000\000\000\000\000\300\003\000\000\000\000\000\000f\003\000\000\000\000\000\000\242\003\000\000\000\000\000\000\336\003\000\000\000\000\000\000\254\003\000\000\000\000\000\000\242\003\000\000\000\000\000\000\242\003\000\000\000\000\000\000\300\003\000\000\000\000\000\000\266\003\000\000\000\000\000\000\020\004\000\000\000\000\000\000z\003\000\000\000\000\000\000\242\003\000\000\000\000\000\000\350\003\000\000\000\000\000\0004\003\000\000\000\000\000\000\006\004\000\000\000\000\000\000\350\003\000\000\000\000\000\000\312\003\000\000\000\000\000\000\230\003\000\000\000\000\000\000\230\003\000\000\000\000\000\000\300\003\000\000\000\000\000\000\006\004\000\000\000\000\000\000\266\003\000\000\000\000\000\000\312\003\000\000\000\000\000\000\362\003\000\000\000\000\000\000z\003\000\000\000\000\000\000\350\003\000\000\000\000\000\000\216\003\000\000\000\000\000\000\266\003\000\000\000\000\000\000\300\003\000\000\000\000\000\000\204\003\000\000\000\000\000\000\324\003\000\000\000\000\000\000p\003\000\000\000\000\000\000$\004\000\000\000\000\000\000\324\003\000\000\000\000\000\000\006\004\000\000\000\000\000\000\324\003\000\000\000\000\000\000z\003\000\000\000\000\000\000p\003\000\000\000\000\000\000 \003\000\000\000\000\000\000\327\003\000\000\000\000\000\000>\003\000\000\000\000\000\000\266\003\000\000\000\000\000\000\266\003\000\000\000\000\000\000\230\003\000\000\000\000\000\000f\003\000\000\000\000\000\000"
      }
    }
  }
}
node {
  name: "tensors/component_10"
  op: "Const"
  device: "/device:CPU:0"
  attr {
    key: "_output_shapes"
    value {
      list {
        shape {
          dim {
            size: 301
          }
        }
      }
    }
  }
  attr {
    key: "dtype"
    value {
      type: DT_STRING
    }
  }
  attr {
    key: "value"
    value {
      tensor {
        dtype: DT_STRING
        tensor_shape {
          dim {
            size: 301
          }
        }
        string_val: "CA"
        string_val: "AZ"
        string_val: "DE"
        string_val: "MD"
        string_val: "FL"
        string_val: "TX"
        string_val: "MD"
        string_val: "MI"
        string_val: "TN"
        string_val: "LA"
        string_val: "GA"
        string_val: "TX"
        string_val: "AL"
        string_val: "TN"
        string_val: "PA"
        string_val: "TX"
        string_val: "TX"
        string_val: "GA"
        string_val: "OH"
        string_val: "TX"
        string_val: "MI"
        string_val: "TN"
        string_val: "TX"
        string_val: "MS"
        string_val: "OH"
        string_val: "TX"
        string_val: "OH"
        string_val: "KS"
        string_val: "OH"
        string_val: "GA"
        string_val: "LA"
        string_val: "CO"
        string_val: "TX"
        string_val: "FL"
        string_val: "IN"
        string_val: "LA"
        string_val: "TX"
        string_val: "AR"
        string_val: "ID"
        string_val: "VA"
        string_val: "OR"
        string_val: "NV"
        string_val: "CA"
        string_val: "AZ"
        string_val: "IL"
        string_val: "MO"
        string_val: "NE"
        string_val: "NC"
        string_val: "TN"
        string_val: "GA"
        string_val: "TX"
        string_val: "WI"
        string_val: "TN"
        string_val: "TX"
        string_val: "FL"
        string_val: "VA"
        string_val: "NC"
        string_val: "MA"
        string_val: "GA"
        string_val: "WI"
        string_val: "GA"
        string_val: "AZ"
        string_val: "MS"
        string_val: "MO"
        string_val: "TX"
        string_val: "VA"
        string_val: "TX"
        string_val: "TX"
        string_val: "TN"
        string_val: "IL"
        string_val: "KY"
        string_val: "NJ"
        string_val: "MA"
        string_val: "IL"
        string_val: "CT"
        string_val: "CA"
        string_val: "NY"
        string_val: "MA"
        string_val: "PA"
        string_val: "NC"
        string_val: "CA"
        string_val: "IL"
        string_val: "MD"
        string_val: "NH"
        string_val: "TX"
        string_val: "RI"
        string_val: "NY"
        string_val: "TN"
        string_val: "MO"
        string_val: "IN"
        string_val: "DC"
        string_val: "CA"
        string_val: "CA"
        string_val: "CA"
        string_val: "GA"
        string_val: "VA"
        string_val: "PA"
        string_val: "NC"
        string_val: "MI"
        string_val: "MA"
        string_val: "NC"
        string_val: "NY"
        string_val: "VA"
        string_val: "MA"
        string_val: "GA"
        string_val: "MA"
        string_val: "NY"
        string_val: "CA"
        string_val: "MA"
        string_val: "OH"
        string_val: "LA"
        string_val: "MA"
        string_val: "CA"
        string_val: "CA"
        string_val: "FL"
        string_val: "NY"
        string_val: "CA"
        string_val: "WI"
        string_val: "FL"
        string_val: "PA"
        string_val: "PA"
        string_val: "CA"
        string_val: "IL"
        string_val: "PA"
        string_val: "OH"
        string_val: "GA"
        string_val: "TX"
        string_val: "IN"
        string_val: "WA"
        string_val: "CT"
        string_val: "DC"
        string_val: "MD"
        string_val: "TX"
        string_val: "UT"
        string_val: "NY"
        string_val: "MA"
        string_val: "NY"
        string_val: "SC"
        string_val: "PA"
        string_val: "NJ"
        string_val: "MN"
        string_val: "NJ"
        string_val: "TX"
        string_val: "DC"
        string_val: "VA"
        string_val: "CO"
        string_val: "MA"
        string_val: "TX"
        string_val: "OH"
        string_val: "IA"
        string_val: "TX"
        string_val: "MI"
        string_val: "CA"
        string_val: "FL"
        string_val: "NC"
        string_val: "MA"
        string_val: "DE"
        string_val: "OK"
        string_val: "CO"
        string_val: "NY"
        string_val: "CO"
        string_val: "IN"
        string_val: "CA"
        string_val: "WI"
        string_val: "NY"
        string_val: "MO"
        string_val: "PA"
        string_val: "OK"
        string_val: "NY"
        string_val: "NY"
        string_val: "VT"
        string_val: "NY"
        string_val: "NY"
        string_val: "OR"
        string_val: "SC"
        string_val: "AL"
        string_val: "TN"
        string_val: "NH"
        string_val: "IL"
        string_val: "IL"
        string_val: "UT"
        string_val: "AL"
        string_val: "CA"
        string_val: "DC"
        string_val: "CA"
        string_val: "KS"
        string_val: "AZ"
        string_val: "IA"
        string_val: "PA"
        string_val: "MN"
        string_val: "MO"
        string_val: "DC"
        string_val: "IL"
        string_val: "PA"
        string_val: "CA"
        string_val: "CO"
        string_val: "NE"
        string_val: "MI"
        string_val: "AZ"
        string_val: "OH"
        string_val: "NY"
        string_val: "NJ"
        string_val: "NY"
        string_val: "LA"
        string_val: "AR"
        string_val: "NJ"
        string_val: "OH"
        string_val: "NY"
        string_val: "GA"
        string_val: "KY"
        string_val: "FL"
        string_val: "CA"
        string_val: "NJ"
        string_val: "WA"
        string_val: "VA"
        string_val: "KS"
        string_val: "MS"
        string_val: "TX"
        string_val: "IL"
        string_val: "OR"
        string_val: "NY"
        string_val: "WA"
        string_val: "NY"
        string_val: "OH"
        string_val: "NY"
        string_val: "FL"
        string_val: "MA"
        string_val: "RI"
        string_val: "OK"
        string_val: "IL"
        string_val: "AL"
        string_val: "HI"
        string_val: "MD"
        string_val: "CA"
        string_val: "CA"
        string_val: "MO"
        string_val: "NY"
        string_val: "KY"
        string_val: "CA"
        string_val: "PA"
        string_val: "MO"
        string_val: "NJ"
        string_val: "ID"
        string_val: "MS"
        string_val: "VA"
        string_val: "FL"
        string_val: "PA"
        string_val: "CT"
        string_val: "OH"
        string_val: "TX"
        string_val: "TN"
        string_val: "MA"
        string_val: "ME"
        string_val: "WY"
        string_val: "TN"
        string_val: "WI"
        string_val: "MA"
        string_val: "NJ"
        string_val: "WV"
        string_val: "IN"
        string_val: "NY"
        string_val: "CA"
        string_val: "PA"
        string_val: "ND"
        string_val: "NM"
        string_val: "TX"
        string_val: "IN"
        string_val: "MI"
        string_val: "ND"
        string_val: "NM"
        string_val: "NC"
        string_val: "FL"
        string_val: "NV"
        string_val: "OH"
        string_val: "CA"
        string_val: "MA"
        string_val: "TX"
        string_val: "AK"
        string_val: "NC"
        string_val: "MT"
        string_val: "MI"
